, 9644350
# 8201420
. 7115044
the 5333440
in 2992193
of 2780691
die 2624842
der 2523063
and 2480241
to 2429054
und 2364973
AT 1974445
a 1593265
- 1535334
; 1416177
is 1277632
&amp; 1033762
that 1030767
zu 974604
den 915641
for 899225
von 867797
on 787547
ist 774456
für 731930
an 631135
das 629509
be 615278
mit 612298
des 602067
auf 601629
with 598891
are 590867
I 586873
( 580212
) 575159
The 564545
as 542357
eine 537756
this 537406
nicht 494783
es 489387
: 483646
it 481159
im 479293
we 475397
werden 465138
dass 464559
Sie 459677
have 442036
not 434318
wir 432654
by 426630
ein 425745
s 425178
dem 423185
apos 422676
quot 419609
sich 408873
will 392847
Die 391474
you 383237
which 380297
auch 369622
or 341677
at 337113
sind 333232
t@@ 332783
from 329385
wird 323041
was 321463
has 312326
als 306889
ich 304024
um 292742
European 278395
all 269591
haben 264792
In 263290
can 262735
oder 261870
also 254273
über 254192
our 253564
so 252060
hat 241363
sie 240420
&@@ 235469
/ 235269
wie 233878
einer 233730
Union 231960
? 231113
zur 217813
Ich 213479
einen 213252
! 209146
er 208939
bei 204466
aus 198491
Das 194303
its 191722
-@@ 191426
g@@ 188532
können 188474
We 187835
but 186823
would 185953
your 183219
am 180936
l@@ 174312
– 172191
more 171948
diese 171014
one 169972
been 169302
their 168395
uns 167775
Mr 167495
Wir 167226
einem 165701
EU 165644
nach 164710
should 164593
This 160224
zum 159599
nur 158393
Commission 157814
It 157149
kann 153730
daß 153431
un@@ 151806
dieser 151786
’ 151692
Kommission 151304
durch 150818
must 149155
do 143917
Der 140575
Es 138890
e@@ 138854
vor 138129
noch 135956
M 135309
they 134808
very 133861
there 133076
us 132978
er@@ 131889
Herr 131871
de 131742
wenn 131112
like 130306
President 130233
aber 129619
... 129030
other 128323
müssen 127893
new 127517
ver@@ 125462
only 125201
time 124943
wurde 124618
an@@ 124440
about 123308
sein 122974
S@@ 120698
sehr 117702
these 117540
re@@ 117090
DO@@ 116704
“ 116398
t 116231
man 116178
diesem 114146
Europäischen 113866
e 112395
who 110937
Parliament 110721
Hotel 109740
ten 109105
up 108824
if 108402
in@@ 107293
no 106726
te 106408
B@@ 105645
alle 105131
Europe 105013
o 104651
möchte 104376
P@@ 104323
k@@ 102309
% 102224
i 101858
mehr 101836
war 100487
people 100402
States 100120
en 100079
any 99364
Member 99200
T@@ 98904
report 98849
s@@ 98533
out 98312
en@@ 97968
what 95604
into 94977
2 94325
countries 94116
A 94047
ge@@ 92612
G@@ 91933
such 91765
1 91368
eines 91258
ab@@ 91024
my 91011
Präsident 90754
C@@ 90357
M@@ 89436
K@@ 89417
need 89091
Council 88361
bis 88308
ihre 88223
were 87812
D@@ 87538
dieses 87263
om@@ 86545
than 86417
when 86139
use 85723
A@@ 85585
important 84993
H@@ 83742
well 83573
now 83431
Bericht 83156
gibt 82993
vom 82923
some 82904
work 82806
because 82693
Parlament 82498
make 82455
them 82346
b@@ 81223
unter 80657
d@@ 80419
be@@ 80417
between 80381
hier 79678
muss 79465
p@@ 79261
first 79250
sowie 79168
o@@ 78868
F@@ 78775
N@@ 78647
Mitgliedstaaten 78406
m@@ 78401
take 78374
many 78240
able 78200
most 77849
zwischen 77546
L@@ 76485
his 76357
3 76304
way 76067
m 76002
E@@ 75933
An@@ 75907
gn@@ 75875
n@@ 75565
unsere 75069
keine 74721
f@@ 74513
em@@ 73992
ing 73454
Ver@@ 72896
Europa 72667
system 72578
support 72358
da 72144
z@@ 72106
W@@ 71867
y 71410
those 71132
made 70994
ein@@ 70933
c@@ 70769
anderen 70657
R@@ 70338
ch@@ 69750
information 69495
Ihnen 69476
policy 69233
dies 68993
years 68833
al@@ 68536
he 68419
If 68041
Wenn 67897
just 67863
diesen 66773
immer 66700
two 66504
st@@ 66424
dann 66209
being 65677
„ 65142
damit 65120
Frau 65112
world 64952
gi@@ 64831
where 64485
gegen 64471
over 64260
had 64223
ter 64146
me 63958
y@@ 63445
Europäische 62928
4 62373
d 62333
even 62278
de@@ 62230
end 62225
habe 62003
hotel 61929
aus@@ 61785
wurden 61233
v@@ 60826
al 60784
u@@ 60636
V@@ 60625
i@@ 60434
ers 60366
right 60326
may 60158
ed 60076
order 60009
gen 59656
sondern 59532
Zeit 59403
li@@ 59240
5 59162
O@@ 59115
lo@@ 59051
ation 58810
unserer 58644
da@@ 58494
Diese 58457
sch@@ 58431
political 58337
see 58172
di@@ 58119
here 58071
” 58024
a@@ 57952
jedoch 57710
ung 57637
ts 57462
year 57315
Ab@@ 57221
Im 57123
rights 56682
market 56510
Menschen 56298
economic 56181
part 56091
same 55732
good 55678
heute 55438
ent@@ 55361
possible 55283
h@@ 55171
europäischen 55165
seine 54758
area 54732
mich 54666
how 54597
therefore 54525
Ihre 54513
place 54278
Rat 53964
own 53798
91 53716
ate 53697
93 53406
want 53360
neue 53301
bereits 53248
development 53245
As 53124
against 53060
through 52981
el@@ 52806
ti@@ 52434
r@@ 52399
ar@@ 52293
sollte 52155
could 52103
10 52005
then 51976
ge 51449
within 51354
amp 51321
You 51228
denen 51199
Frage 51151
ihrer 51139
Jahr 51024
l 50946
le 50814
country 50379
does 50340
There 50207
sollten 50171
neuen 50027
international 49958
point 49704
ohne 49682
zu@@ 49665
much 49610
public 49517
andere 49442
both 49388
Entwicklung 49317
or@@ 48994
under 48937
J@@ 48887
.@@ 48849
Jahren 48818
Z@@ 48805
vor@@ 48464
auf@@ 48362
say 48334
mp@@ 48301
social 48110
k 48102
used 47985
ri@@ 47895
believe 47893
after 47848
For 47784
ganz 47626
machen 47569
fact 47449
last 47399
finden 47320
si@@ 47291
find 47243
without 47114
I@@ 46843
geht 46774
weil 46568
g 46557
j@@ 46530
Ein@@ 46459
allen 46439
still 46181
know 46075
es@@ 46065
on@@ 45632
ungen 45534
denn 45492
Sch@@ 45470
zwei 45386
future 45361
number 45279
um@@ 44953
already 44834
view 44681
think 44591
dazu 44209
services 44163
cannot 44128
That 43951
Aus@@ 43921
jetzt 43890
ungs@@ 43797
darauf 43790
Maßnahmen 43784
today 43770
ro@@ 43747
tes 43726
great 43460
w@@ 43449
different 43317
Commissioner 43255
at@@ 43235
viele 43171
Herrn 43139
set 43048
am@@ 42967
le@@ 42951
Re@@ 42940
human 42786
gap 42612
Welt 42501
too 42467
course 42429
before 42366
Be@@ 42195
situation 41943
dafür 41922
b 41832
free 41783
bin 41479
sten 41456
dis@@ 41451
u 41406
debate 41401
n 41259
Bereich 41225
sagen 41195
Unternehmen 41108
6 41076
available 41051
proposal 40948
Er@@ 40903
case 40901
In@@ 40780
20 40757
einige 40753
ern 40730
high 40665
liegt 40654
level 40430
wieder 40420
c 40327
issue 40307
Mit 40267
process 39962
Ein 39919
meine 39904
mir 39858
financial 39852
selbst 39793
said 39773
national 39760
Arbeit 39721
ob 39668
geben 39656
seiner 39520
30 39495
question 39446
schon 39440
long 39258
Informationen 39192
se 39177
But 39157
bietet 39064
service 39030
get 38984
products 38839
würde 38769
el 38723
te@@ 38721
2009 38700
Lage 38686
sett@@ 38629
Vor@@ 38609
p 38606
per 38317
allem 38312
go 38303
data 38295
wollen 38233
ihren 38127
th@@ 38070
clear 38048
ihr 38034
ings@@ 38013
Committee 37835
über@@ 37681
Land 37590
means 37499
gs 37473
So 37471
Dies 37412
7 37358
However 37177
quality 37170
her 37122
example 37110
viel 36992
Al@@ 36957
citizens 36705
measures 36634
enden 36631
sp@@ 36551
agreement 36508
particular 36490
problem 36398
Länder 36384
x 36355
unseren 36159
stellen 36123
common 36062
U@@ 36026
doch 36009
Parlaments 35931
since 35918
la 35868
Jahre 35692
day 35649
position 35614
best 35530
help 35394
3@@ 35311
during 35299
stehen 35292
ens 35205
z 35184
kommen 35131
insbesondere 35129
ischen 35123
ische 34970
etwas 34911
ensure 34886
give 34815
Wie 34814
taken 34731
every 34717
ated 34657
St@@ 34617
as@@ 34587
put 34533
nun 34502
Und 34431
während 34384
room 34355
Eine 34319
ab 34240
Vorschlag 34237
wo 34228
including 34212
energy 34196
E 34120
möglich 34085
8 34037
each 33862
areas 33720
im@@ 33682
Unterstützung 33593
offers 33575
next 33526
st 33502
vote 33489
ale 33449
form 33394
Bürger 33371
politischen 33356
problems 33308
lassen 33303
op@@ 33293
gut 33277
Rahmen 33263
co@@ 33233
Zusammenarbeit 33143
ar 33141
All 33134
Ländern 32988
it@@ 32905
ch 32837
ent 32828
access 32740
tun 32726
eren 32698
again 32686
ert 32681
cooperation 32658
Art 32578
necessary 32564
lich 32546
hope 32524
h 32427
wichtig 32427
China 32415
bar 32410
waren 32406
few 32321
15 32295
Für 32237
why 32215
security 32163
Our 32128
business 32089
city 32062
further 32033
small 32012
gt 31994
come 31980
Fall 31934
S 31846
Un@@ 31753
far 31752
provide 31737
given 31701
ra@@ 31679
change 31660
three 31653
et@@ 31648
shall 31585
soll 31569
2010 31510
based 31499
Kollegen 31324
ende 31322
US 31312
ating 31305
ste 31235
erhalten 31201
Problem 31130
ter@@ 31102
besteht 31076
ting 31049
seit 31031
is@@ 31022
Teil 31020
On 31015
ad@@ 31014
et 31001
2@@ 30990
however 30938
con@@ 30917
wäre 30914
action 30886
liche 30844
steht 30814
ger 30811
ations 30779
Community 30737
real 30732
Fragen 30723
Ziel 30719
einmal 30711
large 30689
law 30652
ersten 30567
Recht 30549
du 30510
Namen 30477
Internet 30386
offer 30351
House 30336
124 30217
unter@@ 30176
2008 30161
Mrs 30129
back 30103
ja 29936
Group 29875
x@@ 29867
needs 29822
letzten 29717
deren 29680
se@@ 29675
protection 29665
United 29618
beim 29597
us@@ 29595
Bedeutung 29570
ur@@ 29534
der@@ 29532
group 29513
systems 29511
la@@ 29456
50 29416
Sicherheit 29399
worden 29300
ins 29287
legal 29232
r 29215
rooms 29206
gen@@ 29128
better 29110
ag@@ 29093
while 29091
Was 29089
f 28982
muß 28982
wissen 28980
always 28965
au@@ 28959
Fraktion 28875
whether 28833
life 28802
What 28733
To 28708
Euro 28628
12 28547
bringen 28533
einfach 28512
drei 28511
ant 28503
C 28448
dabei 28448
down 28426
And 28410
particularly 28408
4@@ 28403
programme 28395
ted 28316
Kommissar 28265
� 28214
current 28137
sehen 28111
seinen 28061
less 27995
terms 27976
Staaten 27947
They 27856
große 27828
issues 27803
present 27797
Thema 27786
trade 27767
USA 27762
ber@@ 27734
qu@@ 27730
Regierung 27713
company 27703
System 27702
working 27698
Seite 27656
darüber 27652
T 27562
men 27506
did 27450
weiter 27445
großen 27402
9 27367
Probleme 27356
welche 27342
gehen 27282
ck@@ 27280
2007 27263
meiner 27162
ke 27144
ma@@ 27138
With 27135
B 27118
Möglichkeit 27110
Daten 27106
At 27032
Mar@@ 27021
power 27018
davon 27005
2000 27003
certain 26984
Y@@ 26968
sk@@ 26917
to@@ 26878
lichen 26864
full 26846
daher 26833
together 26814
re 26811
land 26809
When 26688
Aber 26679
ten@@ 26674
po@@ 26670
page 26652
using 26647
19@@ 26642
conditions 26617
Weise 26598
eigenen 26595
main 26595
basis 26566
Richtlinie 26546
ous 26538
become 26535
women 26462
Bei 26461
Politik 26387
vi@@ 26349
result 26334
another 26325
aller 26318
These 26282
Zukunft 26269
ings 26255
role 26224
respect 26197
state 26194
ly 26170
open 26143
wirklich 26103
ve 26046
Verfügung 26035
ger@@ 26032
matter 26022
Zimmer 26020
könnte 26018
Auf 25980
ie 25943
production 25892
making 25877
budget 25874
unterstützen 25859
children 25854
ler 25834
rapporteur 25832
führen 25824
alles 25779
chen 25752
ap@@ 25745
ihnen 25736
Ar@@ 25733
os 25721
ates 25708
done 25649
sowohl 25639
ä@@ 25619
sector 25600
line 25591
kein 25520
health 25508
D 25442
located 25441
Auch 25326
ul@@ 25287
region 25266
whole 25257
Er 25247
Nach 25230
Ihr 25209
sh@@ 25205
ol@@ 25131
Stadt 25130
second 25122
natürlich 25118
management 25063
special 25051
around 25030
les 24987
Mo@@ 24947
ic 24869
Rolle 24849
Con@@ 24797
stellt 24789
look 24721
zwar 24691
weitere 24679
europäische 24673
Beispiel 24671
km 24620
ask 24611
resolution 24600
especially 24572
ak@@ 24535
various 24531
Seiten 24492
erreichen 24492
Ro@@ 24489
ei@@ 24481
pro@@ 24477
EUR 24467
control 24453
no@@ 24420
Als 24407
account 24397
Ende 24382
industry 24374
regard 24344
specific 24328
besonders 24326
Frauen 24321
continue 24266
create 24241
really 24211
che 24181
gegenüber 24178
politische 24172
companies 24165
innerhalb 24122
gentlemen 24108
directive 24101
möchten 24069
sen 24068
em 24061
fully 24009
Meinung 24003
going 24002
100 23974
internationalen 23972
Weg 23963
hatte 23939
0@@ 23937
old 23905
unser 23872
site 23861
Ihrer 23842
X@@ 23824
verschiedenen 23777
5@@ 23773
research 23724
25 23715
stay 23677
ges 23673
000 23655
ta@@ 23641
government 23627
million 23620
pre@@ 23618
UNDERSCORE 23612
crisis 23583
something 23571
Situation 23390
itself 23383
ac@@ 23353
isch 23322
wish 23293
gesagt 23278
rules 23269
third 23214
vielen 23181
Artikel 23140
mo@@ 23137
bieten 23118
decision 23089
ere 23053
hand 22953
global 22948
Treaty 22939
Kunden 22933
kommt 22903
list 22886
zi@@ 22864
res 22854
Zusammenhang 22810
é@@ 22763
start 22708
ci@@ 22674
ir@@ 22616
inter@@ 22614
2006 22593
ed@@ 22590
pro 22496
major 22493
institutions 22492
ser@@ 22480
dort 22464
bi@@ 22443
experience 22434
Madam 22402
local 22387
00 22368
towards 22368
water 22356
general 22351
private 22348
least 22335
name 22333
thank 22319
Mittel 22315
Auf@@ 22291
centre 22289
+ 22252
Bo@@ 22183
Ma@@ 22163
O 22117
ds 22106
close 22103
welcome 22078
single 22071
11 22062
befindet 22028
subject 22018
fi@@ 21949
Tag 21917
ne@@ 21916
No 21890
par@@ 21882
Members 21881
her@@ 21875
bo@@ 21855
STAR 21839
ine 21803
18@@ 21796
transport 21777
following 21772
sen@@ 21771
ans 21764
Präsidentin 21761
once 21758
project 21739
days 21713
Lösung 21696
positive 21690
aid 21672
Service 21663
ze 21598
agree 21544
daran 21527
opportunity 21513
things 21505
6@@ 21486
erte 21466
amendments 21460
24 21439
schen 21410
environment 21408
entfernt 21379
stand 21347
often 21322
increase 21307
nehmen 21268
proposals 21263
nämlich 21239
forward 21216
erste 21203
resources 21202
money 21166
beiden 21161
tion 21134
Um 21124
field 21122
age 21083
schaffen 21073
arbeiten 21071
Deshalb 21047
called 21025
ts@@ 21025
German 21019
so@@ 21008
Ihren 20939
Di@@ 20932
Rates 20913
8@@ 20892
several 20891
Hilfe 20870
Zu@@ 20863
standards 20859
Germany 20834
Schutz 20832
ne 20819
Region 20807
Aussprache 20740
rather 20645
Programm 20624
ex@@ 20568
que 20536
ladies 20526
ko@@ 20516
State 20508
weniger 20490
framework 20479
di 20460
growth 20417
adopted 20350
modern 20344
40 20342
call 20287
glaube 20270
tri@@ 20262
food 20258
Par@@ 20257
text 20249
ber 20238
personal 20235
Grund 20224
indem 20214
fen 20205
tra@@ 20197
approach 20184
ing@@ 20169
progress 20160
Europas 20152
erten 20122
Hotels 20120
Co@@ 20113
den@@ 20102
Ebene 20046
red 20046
behalf 20020
Uhr 20004
gemacht 20004
quite 19972
yet 19964
off 19959
opinion 19955
little 19954
th 19940
Leben 19936
away 19926
individual 19914
Alle 19908
Hier 19906
direkt 19899
man@@ 19898
legislation 19880
let 19857
Punkt 19851
unserem 19808
safety 19790
Über@@ 19787
until 19781
Millionen 19759
favour 19747
jeder 19727
Pro@@ 19671
halten 19658
excellent 19617
taking 19602
Kon@@ 19581
price 19572
mi@@ 19562
do@@ 19558
9@@ 19551
dessen 19550
software 19536
gilt 19529
bitte 19524
2005 19512
interest 19511
X 19508
w 19502
ses 19490
found 19488
Dieses 19486
per@@ 19477
darin 19472
est 19466
7@@ 19464
him 19444
Haus 19417
darf 19413
tions 19398
fast 19375
Abstimmung 19367
est@@ 19363
might 19360
words 19354
einigen 19339
New 19332
points 19329
kon@@ 19320
P 19312
Rechte 19310
having 19301
product 19294
Gemeinschaft 19287
activities 19282
responsibility 19258
economy 19240
nationalen 19226
Arbeits@@ 19222
ü@@ 19207
sogar 19167
policies 19144
hinaus 19139
solution 19116
L 19104
2004 19085
erung 19056
costs 19039
concerned 19026
gu@@ 19014
side 19013
brauchen 19008
allow 18995
key 18981
reason 18951
all@@ 18942
range 18935
wei@@ 18935
macht 18932
difficult 18914
provided 18852
Kinder 18840
Produkte 18835
Um@@ 18834
ator 18827
content 18823
18 18821
family 18808
ung@@ 18800
Le@@ 18797
Ge@@ 18784
betrifft 18775
Ch@@ 18774
dürfen 18769
ö@@ 18757
los 18711
ally 18709
Sp@@ 18708
value 18696
En@@ 18695
F 18687
sicher 18671
effective 18667
period 18641
World 18640
importance 18619
September 18618
version 18586
attention 18572
il@@ 18532
unterstützt 18520
members 18509
ischer 18505
location 18501
Mon@@ 18493
ebenfalls 18489
Unter@@ 18483
gerade 18482
ihn 18480
light 18477
.com 18475
hi@@ 18466
greater 18451
14 18438
Dieser 18429
klar 18421
among 18405
sollen 18379
len 18374
Ex@@ 18353
others 18343
bzw. 18318
Bezug 18292
ob@@ 18269
ihm 18267
ago 18251
ck 18225
Software 18214
society 18207
results 18206
Menschenrechte 18189
art 18170
play 18166
ut@@ 18155
environmental 18140
ene 18120
due 18113
views 18105
weiterhin 18087
alen 18077
Form 18070
del 18065
nichts 18061
home 18060
groups 18048
pi@@ 18045
setzen 18029
simply 18028
authorities 18019
zen 18003
genau 17981
nach@@ 17979
He 17978
2003 17966
® 17929
keinen 17926
ken 17921
16 17913
principle 17907
Wirtschaft 17901
Finanz@@ 17900
br@@ 17890
times 17884
öffentlichen 17868
strategy 17862
above 17855
ou@@ 17851
questions 17851
elle 17847
clearly 17834
2001 17828
politik 17812
ors 17802
include 17772
G 17759
term 17738
etwa 17730
makes 17726
show 17719
ster 17711
handelt 17702
left 17700
International 17697
Ansicht 17682
ben 17681
One 17672
hoffe 17664
gute 17636
ihrem 17636
online 17631
fer@@ 17616
ellen 17573
rate 17568
Website 17561
ati@@ 17558
ia 17558
Personen 17557
hin@@ 17548
seinem 17527
Bar@@ 17521
ary 17517
ha@@ 17511
ec@@ 17505
sti@@ 17488
building 17475
wi@@ 17474
employment 17463
pages 17461
for@@ 17443
application 17426
solche 17424
sei 17420
wichtige 17420
deshalb 17417
ce 17410
würden 17410
Th@@ 17401
via 17401
projects 17400
Li@@ 17386
serious 17385
short 17349
air 17341
proposed 17332
IT 17324
technology 17300
Qualität 17280
An 17254
ca 17244
step 17242
R 17232
achieve 17222
Da 17213
Unsere 17186
Grund@@ 17172
EN 17170
voted 17167
ru@@ 17154
deutlich 17153
bedeutet 17150
democracy 17119
essential 17105
non 17104
deal 17063
cultural 17061
led 17058
besser 17056
Lo@@ 17043
jeden 17026
ange@@ 16998
Umsetzung 16994
nen 16993
v 16982
Demokratie 16958
13 16942
design 16916
Strategie 16886
Deutschland 16868
recent 16867
Vorschläge 16855
Vertrag 16847
ni@@ 16831
ina 16829
ho@@ 16817
Verantwortung 16815
werde 16811
Gesellschaft 16798
ens@@ 16798
interests 16793
cht 16789
un 16784
meisten 16769
ali@@ 16765
Haupt@@ 16737
gemeinsamen 16718
known 16716
recht 16701
Rechts@@ 16672
TV 16666
gh@@ 16663
staff 16645
sure 16637
Ziele 16624
tr@@ 16617
freedom 16616
ons 16608
internal 16585
aufgrund 16573
regulation 16571
0 16561
sc@@ 16557
Zugang 16550
ell 16543
sozialen 16535
Kosten 16508
gel@@ 16506
mit@@ 16500
nächsten 16498
user 16474
regions 16465
end@@ 16455
After 16444
zurück@@ 16436
me@@ 16420
contact 16419
website 16418
2002 16400
democratic 16400
Verfahren 16385
kind 16371
tischen 16369
weit 16352
addition 16351
efforts 16331
je 16330
Herren 16315
notwendig 16309
meeting 16308
bring 16307
Bedingungen 16303
Richtung 16295
ur 16269
Berlin 16263
Dank 16243
responsible 16230
Or@@ 16216
provides 16203
sa@@ 16195
technical 16194
over@@ 16185
Debatte 16184
nutzen 16184
currently 16182
required 16178
implementation 16173
Inter@@ 16164
risk 16160
gehört 16158
town 16147
su@@ 16128
vielleicht 16127
1@@ 16126
negotiations 16118
involved 16109
zusammen 16106
bereich 16105
peace 16100
tive 16085
months 16071
Aus 16068
statt 16054
Grundlage 16051
minutes 16044
Ort 16019
Russia 16014
Interesse 16001
past 15986
K 15984
sprechen 15980
he@@ 15976
ding 15972
longer 15952
plan 15948
parties 15945
complete 15931
licher 15928
ad 15925
Berichterstatter 15900
Institutionen 15895
ability 15886
themselves 15878
erst 15868
gestellt 15867
competition 15864
ka 15860
easy 15856
ters 15848
Anwendung 15846
De@@ 15845
führt 15843
wirtschaftlichen 15836
Daher 15830
sion 15826
enjoy 15817
fundamental 15816
feel 15813
findet 15798
thing 15780
N 15750
person 15750
ziehen 15746
Markt 15742
November 15741
enough 15719
ise 15697
besten 15694
training 15688
tige 15687
ach@@ 15686
natural 15675
durch@@ 15641
ging 15641
needed 15627
consider 15615
schnell 15615
Presidency 15613
Hinblick 15594
lot 15589
house 15587
beispielsweise 15581
force 15574
ty 15564
mon@@ 15547
ek@@ 15530
av@@ 15523
vo@@ 15514
sea 15501
Gu@@ 15493
Gebiet 15464
changes 15462
V 15454
eb@@ 15449
Reihe 15446
hin 15446
gemeinsame 15438
… 15430
markets 15407
she 15400
allerdings 15387
Damen 15357
Se@@ 15347
gegeben 15346
fall 15338
voll 15337
extremely 15336
related 15335
ative 15322
ass@@ 15318
ig@@ 15312
cases 15307
danken 15285
nature 15271
ves 15195
comes 15186
Tatsache 15184
Po@@ 15180
Verhandlungen 15152
requirements 15146
under@@ 15137
bel@@ 15131
address 15130
reform 15127
denke 15119
young 15109
Ent@@ 15108
könnten 15108
co 15107
Abkommen 15104
upon 15101
along 15099
60 15089
lange 15085
strong 15084
erreicht 15069
regional 15063
bekannt 15059
ran@@ 15051
bleiben 15038
ta 15017
events 15005
Auswirkungen 15000
funds 14999
customers 14991
developing 14956
besch@@ 14946
and@@ 14942
directly 14936
ationen 14930
Möglichkeiten 14927
‘ 14926
ideal 14915
Regionen 14886
sche 14882
true 14872
Änderungsanträge 14860
improve 14858
beautiful 14832
ra 14829
é 14829
heart 14788
wer@@ 14761
type 14759
lei@@ 14754
ment 14748
never 14740
pl@@ 14726
top 14722
history 14719
eln 14707
keep 14706
live 14704
Änderungsantrag 14702
climate 14699
April 14696
accept 14679
bu@@ 14674
darum 14637
Von 14626
four 14626
» 14625
education 14607
1999 14603
states 14603
Kolleginnen 14594
Neu@@ 14594
ling 14583
understand 14563
zeigt 14551
erforderlich 14540
solutions 14531
total 14523
€ 14503
held 14490
alten 14477
La 14475
80 14461
developed 14454
Israel 14450
actually 14437
bereit 14437
Geschichte 14435
mar@@ 14429
wenig 14429
procedure 14409
appropriate 14408
lan@@ 14408
ches 14407
war@@ 14406
ell@@ 14362
dar 14358
France 14356
verwendet 14350
file 14344
Haushalts@@ 14341
bar@@ 14328
17 14318
Rück@@ 14309
Restaurant 14301
foreign 14296
initiative 14296
seen 14292
Abgeordneten 14279
Entscheidung 14272
No@@ 14266
Car@@ 14238
pe@@ 14233
workers 14229
share 14216
Please 14209
mer@@ 14206
majority 14191
thus 14164
low 14158
act 14154
request 14154
Sicherheits@@ 14141
helfen 14141
á@@ 14141
.. 14140
Schritt 14140
date 14135
idea 14125
mentioned 14119
ner 14118
ep@@ 14115
bei@@ 14097
Liste 14086
Dis@@ 14083
pay 14078
Ausdruck 14074
liches 14072
Beziehungen 14066
Ad@@ 14063
hei@@ 14054
sub@@ 14051
effect 14042
Ihrem 14039
lu@@ 14039
ance 14037
gung 14030
Man 14025
Windows 14015
try 14005
etc 14001
please 13995
tung 13992
aware 13983
either 13983
Mitglieder 13982
fragen 13979
Her@@ 13978
eller 13968
language 13965
tragen 13964
Verordnung 13956
certainly 13950
res@@ 13948
though 13942
Wirtschafts@@ 13936
Doch 13922
relations 13921
spielen 13914
soon 13909
ß@@ 13906
ma 13904
GmbH 13901
oft 13895
weiß 13890
From 13882
tu@@ 13881
Dienstleistungen 13880
Vereinigten 13875
cost 13873
Lu@@ 13872
Turkey 13870
einzelnen 13869
context 13850
hätte 13850
success 13845
car@@ 13840
concerns 13834
hatten 13830
visit 13804
committee 13803
kleinen 13797
unternehmen 13795
Geschäfts@@ 13777
Antwort 13769
everything 13761
Ergebnis 13752
gestimmt 13749
ms 13749
gesamten 13746
Nähe 13743
ern@@ 13733
ker 13732
meet 13726
event 13722
liegen 13719
lead 13711
station 13701
eh@@ 13698
Durch 13676
Bau@@ 13675
Version 13675
wide 13674
Government 13669
Türkei 13667
prices 13658
central 13642
Programme 13637
ver 13636
tax 13635
AG 13632
gesch@@ 13612
Bereichen 13607
doing 13606
Bank 13601
created 13595
ER 13589
1.@@ 13586
Tri@@ 13583
tern 13570
care 13567
ebenso 13524
gleichen 13520
leben 13507
network 13503
är@@ 13497
add 13486
agreements 13482
Ausschusses 13480
according 13464
tigen 13463
Bevölkerung 13460
vier 13458
Krise 13450
hard 13449
ausge@@ 13445
min@@ 13444
programmes 13438
Aufgabe 13433
verschiedene 13417
standard 13414
geb@@ 13404
Entschließung 13395
decisions 13393
wichtigen 13388
almost 13384
ard 13384
ure 13381
additional 13380
500 13374
Ho@@ 13362
car 13351
living 13344
meinen 13338
sch 13338
communication 13324
Förderung 13317
Am 13316
DE 13314
significant 13310
wegen 13299
ys 13296
go@@ 13282
material 13267
space 13264
Ausschuss 13263
guarantee 13254
links 13253
ever 13249
turn 13244
table 13233
heißt 13226
concerning 13225
H 13215
geführt 13215
dern 13206
road 13204
French 13202
direct 13202
tre@@ 13193
gemeinsam 13181
ft 13179
send 13178
writing 13166
ded 13162
up@@ 13161
internationale 13159
near 13145
included 13141
Behörden 13137
enen 13137
century 13131
gebracht 13128
guests 13128
pa@@ 13127
konnte 13126
Zu 13122
existing 13110
receive 13108
objectives 13107
00@@ 13099
reasons 13099
Pi@@ 13095
aten 13094
works 13093
va 13092
keyword 13087
lichkeit 13084
ER@@ 13073
ari@@ 13057
investment 13048
amount 13044
tische 13018
impact 13004
night 12994
Y 12988
zeigen 12987
verbunden 12984
final 12983
ermöglicht 12980
Minister 12972
weiteren 12969
amp@@ 12968
takes 12968
How 12966
Geld 12964
team 12951
200 12932
Kontrolle 12930
values 12928
ie@@ 12926
il 12925
form@@ 12922
ets 12921
mer 12919
rates 12919
parts 12904
Forschung 12896
Court 12879
du@@ 12851
reach 12847
Tra@@ 12844
ways 12837
Erweiterung 12833
moment 12830
Man@@ 12828
facilities 12824
UN 12823
Erfolg 12820
jedem 12817
active 12815
looking 12797
men@@ 12796
Außerdem 12788
gleichzeitig 12784
Beitrag 12737
apply 12731
Lisbon 12730
$ 12729
cher 12723
big 12717
sed 12715
fe 12712
jobs 12707
son 12699
nothing 12691
mis@@ 12667
throughout 12666
ic@@ 12652
fight 12651
legen 12640
lage 12637
tan@@ 12632
Cor@@ 12629
outside 12628
ff@@ 12616
Text 12606
My 12605
run 12605
ges@@ 12603
book 12600
Ri@@ 12591
mal 12586
Gruppe 12585
concern 12585
stage 12584
ven@@ 12577
Let 12576
week 12571
although 12570
agricultural 12556
American 12552
wor@@ 12551
ann@@ 12538
19 12535
card 12535
objective 12530
Jahres 12528
wohl 12522
remain 12501
test 12499
San 12487
took 12485
five 12483
dr@@ 12475
com@@ 12473
military 12438
bleibt 12437
knowledge 12436
pool 12435
capital 12426
fest 12420
www.@@ 12413
Minuten 12405
euro 12401
integration 12367
mu@@ 12360
verfügt 12360
10@@ 12359
connection 12353
unseres 12353
practice 12352
2.@@ 12351
Verbraucher 12350
jede 12349
So@@ 12345
weltweit 12338
rec@@ 12330
Affairs 12329
gab 12329
Verbesserung 12327
20@@ 12324
community 12323
early 12323
hinsichtlich 12315
read 12310
regarding 12309
entwickelt 12301
population 12297
Mor@@ 12289
richtig 12288
unique 12286
across 12285
America 12276
bekommen 12273
tet 12271
users 12271
tion@@ 12263
dialogue 12258
Paris 12254
Mal 12244
ph@@ 12241
ence 12237
21 12226
media 12226
situated 12212
ana 12206
ll 12206
tic 12197
ender 12194
designed 12192
sense 12176
ori@@ 12169
Schaffung 12166
befinden 12161
indeed 12161
aim 12158
lässt 12145
basic 12142
auszu@@ 12124
enthalten 12123
Su@@ 12116
eg@@ 12107
tiert 12103
ity 12098
ES 12096
Ber@@ 12086
kl@@ 12075
17@@ 12074
ah@@ 12069
move 12065
str@@ 12065
restaurant 12063
By 12060
reports 12053
fo@@ 12043
amendment 12037
completely 12034
Preis 12030
Zum 12019
later 12017
Nach@@ 12011
Gelegenheit 12010
ders 12007
ces 11969
Ko@@ 11966
face 11951
Wasser@@ 11941
Notwendigkeit 11939
Finally 11935
« 11923
partners 11922
genommen 11915
cks 11908
culture 11902
develop 11899
einge@@ 11881
Blick 11878
achieved 11877
tungs@@ 11868
hours 11867
Verbindung 11866
benefit 11860
AN@@ 11858
Qu@@ 11858
soziale 11850
gel 11848
gern 11842
established 11840
ast@@ 11837
coming 11837
bed 11830
ieren 11829
Umwelt@@ 11821
au 11812
governments 11806
EN@@ 11786
bare 11786
Wort 11780
body 11780
derzeit 11774
27 11771
comp@@ 11770
Projekt 11766
consumers 11760
beach 11750
= 11748
music 11744
Bu@@ 11737
Interessen 11724
Iran 11718
15@@ 11708
Initiative 11705
seems 11705
Ne@@ 11701
prevent 11700
Park 11693
22 11692
Article 11689
wobei 11689
fördern 11683
party 11682
wichtigsten 11680
baren 11679
member 11676
mean 11671
Russland 11670
center 11670
verbessern 11663
gra@@ 11661
Ergebnisse 11660
ages 11656
jedes 11654
Lissabon 11652
hand@@ 11650
Information 11648
Platz 11642
angenommen 11642
ations@@ 11636
tor 11635
ps 11625
principles 11618
board 11614
à 11612
famous 11601
70 11595
Nutzung 11595
potential 11581
quickly 11575
enten 11573
ot 11570
demand 11549
meinem 11543
ermöglichen 11542
leading 11540
ente 11539
ster@@ 11539
breakfast 11522
II 11514
Einsatz 11498
Zentrum 11496
AR@@ 11491
dar@@ 11477
check 11472
out@@ 11472
package 11471
lung 11465
received 11464
ats 11463
wirtschaftliche 11452
Damit 11449
model 11449
12@@ 11437
original 11433
commitment 11431
verfahren 11431
sustainable 11430
lack 11429
sing 11421
Regierungen 11395
function 11394
ties 11394
16@@ 11391
Do@@ 11386
closed 11380
Com@@ 11379
Vor 11378
hal@@ 11366
contains 11364
völlig 11362
Rei@@ 11357
program 11352
everyone 11345
code 11343
focus 11341
Gr@@ 11339
fair 11338
traditional 11336
Since 11335
huge 11332
comfortable 11327
Partner 11309
Änderungen 11308
agreed 11302
tionen 11302
Bitte 11293
enable 11293
below 11285
mail 11283
lin@@ 11276
ganzen 11272
schriftlich 11272
Gesundheit 11269
perhaps 11269
enthält 11268
Zeitpunkt 11262
Seit 11257
matters 11250
und@@ 11248
gar 11243
mind 11241
image 11232
customer 11218
tatsächlich 11216
dy 11210
neu 11193
chten 11185
Landes 11183
Sa@@ 11177
simple 11177
answer 11174
fin@@ 11173
balance 11169
fallen 11158
gr@@ 11156
Bi@@ 11150
ganze 11148
Br@@ 11143
Booking.com 11140
IN@@ 11131
job 11127
gerne 11126
features 11122
entire 11120
nuclear 11120
ändern 11116
Umwelt 11108
enn@@ 11108
Wei@@ 11107
ST@@ 11100
presented 11099
IC@@ 11096
í@@ 11086
actions 11083
joint 11082
ant@@ 11081
promote 11080
Lösungen 11077
großer 11077
bestehen 11074
zusammen@@ 11074
W 11066
Therefore 11065
built 11064
professional 11060
anderer 11058
includes 11052
Themen 11051
recently 11047
anzu@@ 11046
cor@@ 11046
treatment 11040
increased 11039
kleine 11038
Woche 11036
90 11033
relevant 11033
ums 11030
goods 11028
choice 11018
verstehen 11017
stop 11010
IT@@ 11009
direction 11009
tete 11000
einzu@@ 10999
Kommissarin 10995
levels 10993
zeit 10991
U 10986
Person 10985
note 10982
London 10973
Unser 10966
gewährleisten 10964
Japan 10958
asked 10957
Vi@@ 10955
entwickeln 10955
To@@ 10948
Bekämpfung 10945
fest@@ 10944
game 10940
enlargement 10936
lose 10932
South 10924
wa@@ 10917
Kultur 10915
La@@ 10905
fer 10905
Erachtens 10903
shown 10902
äußerst 10902
Verwendung 10895
ks 10893
whose 10887
performance 10883
det 10879
May 10878
allows 10875
mehrere 10875
East 10847
return 10846
carried 10839
aspects 10829
ments 10826
guten 10815
ben@@ 10812
web 10812
successful 10805
fordern 10804
halte 10803
meines 10799
23 10790
follow 10785
falls 10784
sorgen 10782
Darüber 10772
Fortschritte 10759
Kampf 10755
June 10752
Mi@@ 10751
ies 10730
tungen 10722
beginning 10715
suchen 10715
stri@@ 10711
tig 10710
priority 10703
speak 10702
id 10700
Here 10699
categories 10696
weise 10696
verwenden 10694
forms 10689
zunächst 10688
eigene 10684
half 10680
rest 10675
Barcelona 10673
response 10670
bestimmte 10668
Frankreich 10662
versuchen 10657
perfect 10652
treffen 10651
Dialog 10646
Au@@ 10644
Einführung 10642
Central 10633
our@@ 10633
Organisation 10631
tieren 10622
previous 10621
press 10619
Ukraine 10616
fahren 10615
Ru@@ 10610
RE@@ 10607
Steuer@@ 10605
nimmt 10599
files 10596
Kosovo 10594
possibility 10588
Gra@@ 10574
mat@@ 10562
Dinge 10559
z.B. 10556
ground 10555
eri@@ 10552
August 10547
added 10544
bus 10524
zurück 10512
creation 10504
Convention 10501
Mit@@ 10496
increasing 10496
Bar 10492
gleich 10491
AT@@ 10487
Nor@@ 10486
funding 10477
opportunities 10477
WTO 10470
enter 10469
He@@ 10467
civil 10466
status 10454
Wert 10450
reduce 10443
Kar@@ 10441
obwohl 10438
pressure 10438
protect 10433
ales 10420
lediglich 10409
ents 10403
fünf 10399
prepared 10385
bisher 10384
sagte 10378
external 10369
IS@@ 10356
reached 10353
Design 10352
front 10352
thanks 10344
Bestimmungen 10338
shows 10334
Integration 10331
For@@ 10326
Zahl 10323
gemäß 10323
Anzahl 10321
Mehrheit 10304
Now 10304
Prozess 10295
Bild 10291
rich 10288
considered 10286
iert 10286
ones 10284
effects 10283
Mitglied 10274
Erklärung 10266
ier@@ 10259
Of 10247
gas 10239
lang 10237
Industrie 10231
Web 10231
bl@@ 10227
Im@@ 10219
Per@@ 10205
ry 10203
gesetzt 10195
consumer 10192
higher 10191
tur@@ 10185
behind 10184
Amsterdam 10182
än@@ 10182
holiday 10170
ourselves 10159
Spain 10158
highly 10156
nie 10154
Ta@@ 10152
ang 10152
gehören 10151
scheint 10150
bestimmten 10149
size 10146
weiter@@ 10145
Position 10143
versch@@ 10140
cken 10135
— 10133
ba@@ 10132
instrument 10127
equipment 10126
neben 10124
decided 10118
Gewalt 10115
Vorschriften 10115
PC 10105
applications 10100
ade 10095
isches 10094
ort 10091
solchen 10089
El@@ 10088
capacity 10078
regards 10077
35 10074
legislative 10072
Schlusselwortern 10071
geschlossen 10071
verfügen 10067
compromise 10066
genden 10066
supported 10064
Markt@@ 10054
Lebens@@ 10053
Standpunkt 10052
tliche 10047
tt@@ 10044
relation 10042
Sozial@@ 10039
Anfang 10038
mein 10036
gesamte 10035
English 10020
setting 10018
Italy 10017
zweite 10015
Juni 10010
tz@@ 10008
Africa 10001
ality 9997
har@@ 9997
rund 9983
erster 9982
einschließlich 9980
Entscheidungen 9975
tiger 9975
Sprache 9974
Stunden 9972
assistance 9963
friendly 9960
pleased 9960
First 9958
bringt 9958
ore 9955
stability 9950
Freiheit 9948
message 9940
1998 9938
maßnahmen 9924
enz@@ 9917
office 9912
Aktivitäten 9910
ren@@ 9910
ving 9910
Tage 9909
vergangenen 9903
Beschäftigung 9902
AL@@ 9901
remains 9895
berg 9894
14@@ 9893
cause 9887
ser 9887
billion 9886
weder 9883
complex 9882
ano 9881
Aufmerksamkeit 9879
sts 9874
choose 9871
oil 9870
stark 9869
0.@@ 9867
regulations 9867
exchange 9847
Fahr@@ 9845
aufgenommen 9838
tors 9834
came 9832
Management 9821
sive 9819
discussion 9814
Mai 9812
Ni@@ 9803
Pre@@ 9800
rule 9799
heit 9796
Familie 9794
details 9790
Erfahrung 9783
places 9782
Wahl 9780
item 9779
computer 9777
December 9776
Punkte 9774
Welt@@ 9774
{ 9771
providing 9769
13@@ 9768
pf@@ 9753
Hand 9751
gleich@@ 9751
somit 9750
agenda 9746
des@@ 9745
ying 9743
Gefahr 9742
Handel 9742
Energie 9741
Berichts 9740
Landwirtschaft 9739
contribution 9733
movement 9733
leisten 9728
creating 9713
instruments 9712
inc@@ 9711
Auswahl 9700
Some 9697
sions 9693
später 9691
stra@@ 9691
europäischer 9686
Stelle 9672
bezüglich 9672
ism 9669
violence 9668
don 9667
wer 9667
Land@@ 9665
Wachstum 9660
double 9659
former 9650
organisation 9650
National 9637
ators 9633
series 9630
Site 9627
General 9626
Herzen 9625
Rights 9624
ub@@ 9623
Q@@ 9615
assi@@ 9608
hohen 9605
Pa@@ 9603
Während 9601
Dabei 9600
industrial 9598
bit 9585
supply 9585
voll@@ 9584
Transparenz 9581
300 9572
dadurch 9571
statement 9567
els 9566
procedures 9564
aufzu@@ 9560
draft 9557
getan 9557
Raum 9552
search 9548
sto@@ 9548
CD 9539
Angebot 9536
gives 9536
cht@@ 9534
provisions 9534
tell 9531
ES@@ 9530
internet 9526
partner 9524
por@@ 9523
British 9514
ll@@ 9512
Systems 9508
AS@@ 9502
criteria 9502
Grenzen 9499
leider 9493
travel 9493
Auffassung 9489
transparency 9489
innovative 9482
Dezember 9479
Nationen 9479
Portugal 9479
Reform 9479
weisen 9479
brought 9477
Funktion 9467
limited 9462
Mail 9460
commercial 9457
style 9456
chte 9454
cu@@ 9454
Mitarbeiter 9452
lines 9448
park 9448
steps 9446
Diskussion 9445
leave 9442
ist@@ 9441
land@@ 9434
Bel@@ 9431
teile 9431
Meine 9430
außerdem 9426
border 9424
fishing 9422
einzige 9420
ess 9419
zei@@ 9419
bad 9418
star 9416
materials 9410
document 9406
solidarity 9406
property 9401
Preise 9399
link 9396
word 9394
ro 9385
ship 9383
independent 9371
labour 9359
san@@ 9358
express 9353
sieht 9352
equipped 9345
January 9343
hotels 9335
fe@@ 9333
Gemeinschafts@@ 9331
Präsidentschaft 9322
Macht 9321
tim@@ 9314
produce 9309
Produktion 9307
Mediterranean 9306
fa@@ 9306
Bildung 9302
giving 9299
zweiten 9299
produced 9296
task 9292
begrüße 9289
Regeln 9284
instead 9274
Tagesordnung 9273
sta@@ 9271
gten 9268
pp@@ 9263
Wasser 9259
morgen 9257
Meer 9256
elections 9252
führung 9252
insgesamt 9243
Folgen 9241
Bürgerinnen 9239
Investitionen 9238
ste@@ 9238
kannst 9231
Spiel 9229
pri@@ 9228
equal 9227
purpose 9225
ven 9225
Natur 9224
Republic 9223
poverty 9221
comm@@ 9218
sub 9217
efficient 9216
scher 9210
Western 9209
Fehler 9208
} 9207
cs 9201
latest 9199
Team 9198
angesichts 9196
similar 9185
и@@ 9185
Party 9178
option 9177
effort 9176
gl@@ 9173
schließlich 9173
ful 9169
setzt 9168
wichtiger 9167
zahlreiche 9167
Bei@@ 9166
structure 9163
lagen 9160
Wettbewerb 9159
eu@@ 9155
tor@@ 9151
enti@@ 9147
ili@@ 9147
Spiel@@ 9145
Sache 9142
ski 9140
modified 9138
easily 9134
Gründen 9133
safe 9133
activity 9130
sound 9123
eigentlich 9122
walk 9118
diejenigen 9117
,000 9113
Bürgern 9111
met@@ 9103
server 9103
Server 9099
operation 9096
tem 9086
mittel 9079
distribution 9077
net 9075
bevor 9074
tomorrow 9073
Präsidenten 9064
bri@@ 9064
Anfrage 9057
March 9057
colleagues 9055
reading 9047
Fach@@ 9046
fl@@ 9045
Entwicklungs@@ 9043
tro@@ 9041
Bemühungen 9030
AC@@ 9028
Umgebung 9021
consequences 9019
congratulate 9018
Anforderungen 9013
Hand@@ 9013
Öffentlichkeit 9010
Am@@ 9008
pen@@ 9000
Services 8997
floor 8997
beitragen 8994
terrorism 8982
Kraft 8969
challenges 8968
stimmen 8962
Euro@@ 8958
gefunden 8958
Today 8955
cl@@ 8954
konnten 8952
Development 8946
abzu@@ 8946
Nur 8945
nor 8945
tiv@@ 8944
stre@@ 8937
programm 8918
neuer 8917
größten 8916
damage 8912
Lei@@ 8908
gelten 8907
October 8902
Amendment 8901
Projekte 8899
treten 8899
allein 8897
lies 8896
allowed 8892
Online 8890
eng@@ 8886
Änderung 8885
leicht 8874
saying 8868
video 8863
ino 8854
paid 8850
bre@@ 8845
ation@@ 8844
uses 8844
Sinne 8843
van 8837
hohe 8836
illegal 8830
credit 8817
accommodation 8813
sites 8813
City 8812
draw 8806
pass 8806
source 8801
War@@ 8797
king 8795
4.@@ 8790
sur@@ 8790
Gäste 8783
iz@@ 8783
frei 8779
kre@@ 8777
ite 8773
reality 8772
zehn 8772
six 8771
Linie 8769
study 8769
written 8769
öffentliche 8769
Ra@@ 8764
Bereiche 8763
conference 8762
tlichen 8758
ären 8756
ler@@ 8755
durchgeführt 8753
teilen 8753
möglichkeiten 8743
Tat 8734
conflict 8732
sm@@ 8732
Kur@@ 8729
erungen 8728
28 8726
systeme 8725
af@@ 8723
eben 8722
Ba@@ 8719
Rechtsvorschriften 8719
build 8718
hätten 8718
talk 8718
1997 8709
finally 8709
benefits 8705
Linux 8695
ihres 8693
summer 8692
fr@@ 8688
26 8680
Ste@@ 8680
crucial 8680
lau@@ 8680
lic@@ 8678
Nr. 8674
documents 8674
types 8673
kurz 8671
hr@@ 8663
Einzel@@ 8661
erwarten 8650
schaft 8646
innen 8642
erneut 8636
Du@@ 8635
concept 8626
interesting 8626
len@@ 8626
Por@@ 8620
mm 8618
pres@@ 8615
Also 8614
verhindern 8612
Spanish 8610
bank 8610
ess@@ 8609
forces 8608
voting 8607
avoid 8605
col@@ 8605
Druck 8604
eingesetzt 8600
Vo@@ 8596
Fällen 8592
ill@@ 8592
sis 8589
Höhe 8587
Monaten 8585
ak 8575
popular 8575
charge 8573
Januar 8572
establish 8571
aler 8569
Tr@@ 8566
3.@@ 8565
Gi@@ 8565
wählen 8564
round 8559
gre@@ 8556
berücksichtigt 8554
volle 8553
Insel 8552
atmosphere 8550
1. 8548
Business 8547
ton 8546
Italian 8539
speed 8539
applied 8538
Sal@@ 8532
Museum 8528
tik@@ 8524
yer 8523
Ansatz 8518
kt 8517
behandelt 8515
vol@@ 8514
bin@@ 8513
zer@@ 8509
goes 8507
Ser@@ 8505
started 8503
construction 8501
Furthermore 8495
Directive 8493
ese 8493
York 8488
benötigen 8486
vergessen 8486
März 8478
sted 8478
lives 8476
aufge@@ 8466
cal 8466
gender 8461
require 8461
gend 8457
implemented 8453
verb@@ 8450
vers@@ 8449
FR 8444
gende 8442
Angelegenheit 8436
Berichterstatterin 8434
ines 8429
une 8427
geworden 8426
Si@@ 8423
elements 8421
Republik 8418
relating 8417
genießen 8416
vertreten 8413
weg 8408
mobile 8406
sent 8405
hinter 8402
island 8400
monitoring 8400
review 8393
efficiency 8391
immediately 8390
July 8386
are@@ 8386
ok@@ 8381
kosten 8379
folgt 8374
farmers 8372
alternative 8364
ß 8362
entsprechenden 8361
happy 8356
aktuellen 8351
emp@@ 8350
tel@@ 8350
Ger@@ 8348
EC 8337
45 8336
click 8336
Ak@@ 8331
Go@@ 8330
warum 8328
extra 8326
j 8325
Although 8320
changed 8320
Finanzierung 8317
genannten 8310
accession 8306
ien 8303
justice 8303
Heute 8302
practical 8302
trans@@ 8292
Werte 8290
sor@@ 8287
eher 8284
richtige 8283
mann 8281
pr@@ 8280
North 8279
Oktober 8279
Lassen 8277
death 8274
Daten@@ 8272
payment 8270
the@@ 8266
beyond 8264
wenige 8263
can@@ 8250
Aspekte 8247
kan@@ 8243
film 8241
lat@@ 8241
requires 8241
erungs@@ 8237
tool 8233
schließen 8229
minimum 8225
Angelegenheiten 8219
Jo@@ 8218
bes@@ 8217
ou 8215
integrated 8211
organisations 8207
versucht 8205
ably 8201
hält 8199
tru@@ 8199
Villa 8190
carry 8189
32 8183
EC@@ 8183
ette 8182
ready 8181
ör@@ 8176
ass 8174
frage 8172
Sh@@ 8159
überhaupt 8157
Zweitens 8155
laden 8145
Flug@@ 8142
log@@ 8139
Hoch@@ 8138
Arbeitnehmer 8132
Ressourcen 8131
tel 8131
expect 8127
danke 8122
Ha@@ 8119
met 8118
reduction 8116
stellung 8115
demokratischen 8098
ideas 8098
Konferenz 8095
lösen 8094
Solidarität 8093
growing 8092
powers 8089
base 8088
Fund 8086
fu@@ 8085
Behandlung 8081
Many 8081
employees 8081
analysis 8076
Vertrauen 8072
werk 8072
we@@ 8071
Sicht 8070
begin 8069
größte 8069
alität 8067
useful 8067
Italien 8066
reference 8064
RO@@ 8061
Gesundheits@@ 8058
Pal@@ 8058
ek 8057
mention 8051
ce@@ 8046
Schwierigkeiten 8045
Jahrhundert 8044
persons 8039
San@@ 8031
Strand 8027
Wahl@@ 8027
entsprechend 8026
historical 8026
Natürlich 8021
schützen 8019
geschaffen 8018
Op@@ 8015
Tagen 8015
Spanien 8011
trotz 8011
sel@@ 8010
del@@ 8009
gesehen 8008
zumindest 8008
Centre 8007
largest 8002
official 7999
bau@@ 7990
wanted 7990
Zur 7986
weeks 7986
erfüllen 7984
ismus 7983
stell@@ 7983
namely 7978
Gar@@ 7977
Du 7975
app@@ 7974
adopt 7973
Fl@@ 7971
gewesen 7969
besondere 7965
section 7964
zahlen 7964
rise 7960
ics 7959
sting 7956
raised 7955
OS 7946
ve@@ 7942
extent 7941
Vergangenheit 7935
freien 7935
е@@ 7934
EL@@ 7933
erinnern 7933
sectors 7933
Secondly 7931
ik 7928
Tur@@ 7927
apartment 7926
nice 7926
sei@@ 7924
Thank 7923
erklärt 7922
wieder@@ 7919
Do 7918
ther@@ 7917
erk@@ 7915
lt 7913
Herausforderungen 7909
Hinsicht 7909
Benutzer 7907
ev@@ 7906
challenge 7904
waste 7904
tsch@@ 7903
yp@@ 7902
Parteien 7900
endlich 7899
lernen 7898
Musik 7897
deine 7892
West 7889
verpflichtet 7888
Annahme 7884
lesen 7877
Inhalt 7870
variety 7861
technischen 7857
ó@@ 7847
hold 7844
Ireland 7843
cohesion 7842
denken 7840
tlich 7838
Wann 7833
folgen 7826
tools 7824
platz 7821
zone 7818
anders 7815
sports 7815
Wochen 7813
hören 7812
loss 7811
secure 7811
Conference 7808
chen@@ 7808
Frieden 7805
Gen@@ 7805
Bilder 7802
Me@@ 7801
Your 7801
bessere 7800
ständig 7800
ack@@ 7799
friends 7797
poor 7797
Opfer 7796
Beginn 7794
implement 7794
Ober@@ 7790
dung 7789
verantwortlich 7783
Juli 7781
sektor 7775
absolutely 7769
Bur@@ 7768
Room 7763
paar 7761
genug 7759
off@@ 7759
plans 7757
Anstrengungen 7755
Club 7755
highest 7755
AD@@ 7754
Schritte 7752
vorgeschlagen 7752
initiatives 7750
strategic 7750
ga 7749
unten 7748
scientific 7745
borders 7742
sofort 7742
darstellt 7734
stelle 7731
Arbeitsplätze 7730
Armut 7730
lower 7730
Mal@@ 7729
1,@@ 7723
expressed 7719
cut 7718
äre 7718
Firma 7716
stands 7715
Vertreter 7713
numerous 7709
processes 7708
gro@@ 7706
ausgestattet 7705
doubt 7705
om 7702
anything 7700
Den 7699
25@@ 7697
29 7693
ich@@ 7687
CO@@ 7684
caused 7683
vollständig 7683
Instrument 7682
Ti@@ 7680
accordance 7679
bitten 7679
tation 7678
31 7671
Küche 7670
Center 7667
alone 7667
begrüßen 7666
starting 7666
Fu@@ 7665
Groß@@ 7663
Verfassung 7662
Verpflichtungen 7661
ment@@ 7661
learn 7658
anderem 7657
Erfahrungen 7656
ban@@ 7656
historic 7656
Sitzung 7655
1996 7654
raum 7652
medi@@ 7650
zed 7648
bau 7642
school 7637
Verkehrs@@ 7634
gest@@ 7630
außerhalb 7629
oben 7628
Even 7627
Basis 7625
clean 7625
despite 7625
box 7623
Office 7621
Mittel@@ 7620
bewusst 7620
B. 7619
geh@@ 7619
wahrscheinlich 7618
motion 7616
UN@@ 7613
trying 7608
son@@ 7605
During 7603
daily 7600
Web@@ 7598
comprehensive 7596
gekommen 7595
Te@@ 7593
Gruppen 7590
Praxis 7587
innovation 7587
Unterkategorien 7586
post 7586
village 7586
Nicht 7577
accepted 7576
heard 7576
scope 7572
erfolgreich 7570
fine 7570
affected 7563
Terrorismus 7561
häufig 7561
barkeit 7559
distance 7559
bel 7553
maximum 7553
restaurants 7552
acc@@ 7551
sometimes 7548
entscheiden 7547
ness 7544
St. 7543
legt 7543
stets 7543
West@@ 7540
hoch@@ 7540
thought 7533
Ausschuß 7532
braucht 7532
child 7528
Wi@@ 7527
ble 7525
chance 7525
gem@@ 7525
alte 7523
Staat 7521
vorgelegt 7521
übernehmen 7517
inn@@ 7516
download 7515
­ 7511
negative 7509
representatives 7508
Agenda 7507
ju@@ 7505
talking 7505
allgemeinen 7504
5.@@ 7503
Austria 7499
Sk@@ 7497
businesses 7497
probably 7497
reviews 7497
wine 7496
Afghanistan 7495
Wel@@ 7494
sage 7492
beste 7491
Datei 7489
dan@@ 7488
digital 7488
Binnenmarkt 7486
languages 7484
vital 7484
nahe 7483
transfer 7482
Kriterien 7481
hoch 7474
letzte 7474
sport 7472
Security 7469
stress 7465
na 7464
Staats@@ 7463
Allerdings 7457
technologies 7455
erfolgt 7446
jeweiligen 7446
Wahlen 7444
Rec@@ 7443
methods 7443
Aufgaben 7442
eindeutig 7442
Ben@@ 7440
Forschungs@@ 7436
priorities 7434
tt 7433
got 7432
assen 7430
gew@@ 7429
qui@@ 7427
Handels@@ 7424
approved 7424
zwei@@ 7424
tabled 7423
gef@@ 7422
regime 7422
heutigen 7421
Erstens 7417
late 7417
annual 7412
sitting 7412
vel@@ 7411
Denn 7410
Is 7406
è@@ 7405
Urlaub 7402
published 7396
interested 7395
Debian 7393
PL 7385
conclusion 7385
fra@@ 7385
gar@@ 7382
ini 7382
tisch 7376
kennen 7375
Unter 7374
Chi@@ 7372
method 7369
Zustimmung 7364
zation 7362
join 7360
prä@@ 7357
Ac@@ 7356
operating 7353
influence 7351
ero 7349
Kor@@ 7345
Energie@@ 7343
ously 7343
reforms 7338
committed 7336
optim@@ 7334
confidence 7333
zahlreichen 7333
leaders 7330
hinweisen 7329
richten 7329
ya 7327
neues 7325
options 7324
ssen 7324
lost 7321
victims 7321
drive 7320
ff 7319
mal@@ 7315
news 7312
tions@@ 7312
gesprochen 7311
demands 7306
genutzt 7305
Ju@@ 7303
Vereinbarung 7303
Ur@@ 7302
proper 7299
schwer 7298
became 7297
Kultur@@ 7292
Mitteilung 7288
Mat@@ 7283
Anerkennung 7280
offered 7279
Moreover 7277
Dateien 7275
map 7275
month 7275
Dar@@ 7274
hen 7272
reichen 7272
с@@ 7272
tics 7267
Viele 7265
IS 7263
folgenden 7262
2020 7258
Ku@@ 7258
calls 7258
Protokoll 7255
rei@@ 7250
ün@@ 7249
Organisationen 7245
ology 7245
crime 7243
maintain 7241
Sonder@@ 7240
NATO 7239
decide 7239
fre@@ 7239
überzeugt 7239
sechs 7234
Chinese 7232
airport 7230
says 7229
prüfen 7223
While 7222
ns 7220
fil@@ 7219
advantage 7218
circumstances 7218
historischen 7218
Haushalt 7217
Volk 7216
morning 7205
zes 7205
Red 7199
fish 7198
class 7196
intended 7196
currency 7192
glauben 7192
bra@@ 7190
größere 7190
Falls 7188
wert 7188
Kinder@@ 7185
Wunsch 7183
bilden 7182
unemployment 7182
critical 7180
persönlichen 7180
comments 7174
erkennen 7170
overall 7170
worked 7168
administrative 7167
ord@@ 7167
berücksichtigen 7161
Microsoft 7160
Folge 7158
Preis@@ 7157
structural 7156
elles 7154
Homepage 7151
ensuring 7151
Nun 7150
Einige 7149
Fre@@ 7148
Fo@@ 7144
Obwohl 7144
Russian 7143
plant 7140
head 7135
laws 7132
nationale 7131
stärker 7129
offering 7127
union 7125
Nations 7117
encourage 7116
Stabilität 7115
votes 7110
rä@@ 7109
agriculture 7108
sicherzustellen 7105
ole 7101
University 7098
alism 7097
cities 7096
fields 7092
beginnen 7091
Krieg 7088
Mag@@ 7086
Einrichtung 7084
erwartet 7084
budgetary 7081
welches 7081
See 7078
6.@@ 7075
Cre@@ 7074
High 7074
Milliarden 7074
hoffen 7073
fahr@@ 7071
Ö@@ 7070
gan@@ 7067
tal@@ 7066
self 7065
ai@@ 7064
erwähnt 7060
Not 7059
relationship 7056
Iraq 7055
clients 7055
Bor@@ 7049
contribute 7044
erter 7041
beide 7040
ement 7040
kam 7040
vollen 7036
sicherheit 7035
edi@@ 7033
sales 7032
30@@ 7030
gleiche 7030
Roma 7029
ut 7029
Falle 7028
bro@@ 7028
rechte 7028
Gesamt@@ 7027
ast 7027
worldwide 7027
laufen 7026
Wohn@@ 7023
amerikanischen 7023
ini@@ 7021
bur@@ 7016
bald 7015
Luft@@ 7014
01 7013
seines 7012
Zusammen@@ 7010
ausschließlich 7009
gezeigt 7008
ase 7006
opening 7001
Sti@@ 6999
stable 6997
Only 6996
Flughafen 6995
reich@@ 6995
Reformen 6992
ide@@ 6992
medium 6991
sal@@ 6988
player 6985
Kre@@ 6979
za 6979
stimme 6978
dringend 6976
effectively 6974
übernachten 6974
abge@@ 6973
Partei 6971
Sport@@ 6970
rechts 6967
akzeptieren 6966
unbedingt 6966
ergreifen 6965
players 6963
Tor@@ 6960
fellow 6960
OR@@ 6959
Public 6959
schi@@ 6957
ture 6957
bet@@ 6950
75 6946
discuss 6945
selection 6943
increasingly 6938
pe 6938
correct 6936
Dann 6932
flexible 6931
UK 6924
cover 6923
improved 6921
Besch@@ 6920
green 6917
а@@ 6917
äu@@ 6916
sum@@ 6915
Idee 6909
whom 6909
ür@@ 6909
Dazu 6908
Vertrags 6908
Verwaltung 6904
Personal 6903
sches 6903
administration 6902
Durchführung 6901
erlaubt 6900
teten 6900
quiet 6899
Atmosphäre 6897
Gipfel 6897
Sektor 6897
cre@@ 6895
ig 6895
discussed 6892
Restaurants 6891
Bad 6890
EL 6888
Wettbewerbsfähigkeit 6888
deutschen 6880
lin 6880
Aufenthalt 6879
senden 6877
relate 6875
getroffen 6870
financing 6869
Leute 6868
ON@@ 6868
exist 6863
release 6863
pu@@ 6862
processing 6856
aimed 6855
mel@@ 6855
competitive 6853
mes 6852
Indeed 6851
Hause 6849
Wieder@@ 6848
getting 6847
pat@@ 6846
selbstverständlich 6845
separate 6843
Har@@ 6842
zer 6833
bs 6827
sa 6826
stated 6826
zeiten 6826
People 6823
finanziellen 6817
target 6815
Kunst@@ 6814
port 6812
emissions 6808
erzielt 6808
ada 6803
banks 6802
images 6799
Gegen@@ 6798
Haltung 6797
wrong 6795
enz 6793
signed 6793
understanding 6793
apartments 6791
machine 6790
Tre@@ 6789
Bundes@@ 6787
zudem 6784
Z 6782
entspricht 6781
Zei@@ 6780
mainly 6780
modernen 6780
offen 6776
DVD 6772
ban 6771
zusätzliche 6771
Technologie 6770
expected 6769
bestehenden 6765
participation 6763
Dr. 6761
industrie 6761
placed 6760
partnership 6757
Bal@@ 6756
spricht 6756
Frühstück 6749
gerecht 6747
wesentlich 6747
beziehen 6746
shi@@ 6745
wünschen 6742
kommenden 6738
notwendigen 6737
Augen 6729
discussions 6729
con 6728
Bri@@ 6727
festgelegt 6727
reduced 6726
strengthen 6726
ls 6724
\ 6723
umgesetzt 6721
protected 6720
precisely 6719
Ihres 6714
benutzt 6713
Wer 6712
fri@@ 6708
ße 6703
era 6700
fort@@ 6698
rural 6698
Ist 6694
las@@ 6694
sources 6694
jene 6693
globalen 6692
immigration 6689
ungsp@@ 6687
ige 6685
hor@@ 6683
goal 6682
normal 6681
train 6674
guidelines 6673
mission 6672
specifically 6671
ws 6670
Le 6669
wider@@ 6669
institutional 6663
families 6657
Schließlich 6655
Computer 6653
iger 6652
risks 6650
assessment 6648
imp@@ 6645
tten 6643
Menschenrechts@@ 6642
gte 6642
ures 6642
contract 6641
automatisch 6640
Osten 6639
entsprechende 6638
parking 6638
freuen 6633
kaum 6633
Karte 6631
phone 6630
Airport 6628
positions 6628
tn@@ 6627
transparent 6627
represents 6626
ction 6625
ice 6623
IM@@ 6621
Chance 6620
ris@@ 6619
unterschiedlichen 6619
Hei@@ 6617
Google 6613
Zunächst 6610
More 6608
² 6607
Social 6599
infrastructure 6598
möglicherweise 6598
scale 6598
else 6595
wants 6592
teil@@ 6590
cally 6589
Mitgliedstaat 6581
Da@@ 6577
Win@@ 6577
improving 6575
ften 6573
Spieler 6569
animals 6567
Fi@@ 6562
alisierung 6560
ants 6560
closely 6558
planning 6556
serve 6556
Nutzen 6553
Medien 6552
referred 6552
nachdem 6550
betonen 6549
discrimination 6546
Ä@@ 6546
rein@@ 6545
rich@@ 6544
sign 6543
schutz 6542
Abschließend 6541
prozess 6541
Gebäude 6539
je@@ 6536
Met@@ 6535
Agreement 6533
listed 6532
ish 6529
mittel@@ 6529
fisheries 6528
limit 6528
Policy 6526
mountain 6524
developments 6523
Vorteile 6520
privaten 6517
Natur@@ 6515
measure 6514
mindestens 6512
entry 6510
1995 6507
Hotel@@ 6507
sufficient 6506
gang 6503
stärken 6502
Informations@@ 6501
win@@ 6500
möglichen 6495
erenden 6491
Lin@@ 6490
wal@@ 6490
erfüllt 6489
traffic 6487
exactly 6485
hol@@ 6481
Best@@ 6480
yourself 6480
manner 6479
suitable 6478
siehe 6476
teil 6473
fol@@ 6471
Costa 6463
endes 6463
running 6460
о@@ 6460
Produkt 6458
introduced 6457
™ 6455
Initiativen 6454
handeln 6454
IL@@ 6452
Forderung 6451
stes 6450
Berg@@ 6449
LE@@ 6449
Kenntnis 6447
freie 6447
police 6447
° 6446
schaften 6445
parliamentary 6444
Abgeordnete 6441
competitiveness 6441
session 6440
gener@@ 6439
Produkt@@ 6437
Vereinten 6432
länder 6432
sicherlich 6431
erzielen 6430
PT 6423
supports 6423
warten 6422
т@@ 6422
selected 6421
evening 6418
thousands 6416
Irak 6415
achten 6408
appear 6408
Greece 6406
aktiv 6405
suggest 6405
erfahren 6398
anti 6397
coordination 6397
fac@@ 6397
defined 6394
lungen 6393
India 6392
shopping 6388
submitted 6388
Privat@@ 6387
Stimme 6384
remember 6384
verfolgen 6382
Stadt@@ 6381
anischen 6380
Sterne 6378
vermeiden 6375
Economic 6374
onen 6371
ory 6370
represent 6368
az@@ 6366
mor@@ 6366
Berichte 6363
technische 6360
visitors 6359
managed 6357
happen 6356
Free 6354
ft@@ 6354
sion@@ 6354
speaking 6354
ga@@ 6353
gelegt 6353
introduction 6352
ach 6349
presidency 6348
ational 6347
neu@@ 6347
difficulties 6346
langen 6346
generation 6345
detailed 6341
becoming 6337
linked 6334
bestimmt 6331
oll@@ 6327
Hel@@ 6326
Standard 6325
mark 6324
genannt 6323
politischer 6323
cker 6322
considerable 6322
wenden 6321
Wein@@ 6320
ron@@ 6320
wo@@ 6320
dec@@ 6317
Systeme 6314
jo@@ 6314
RA@@ 6312
El 6311
covered 6310
Grand 6309
besonderen 6307
ke@@ 6303
od@@ 6302
Why 6300
fs 6299
anderes 6298
verkehr 6298
love 6296
una 6295
Vielfalt 6293
Asia 6290
supporting 6290
dienen 6288
EM@@ 6287
Plan 6286
earlier 6283
otherwise 6283
wing 6283
purposes 6281
aktuelle 6280
400 6279
Innovation 6279
erhöhen 6279
Sol@@ 6278
cur@@ 6278
speech 6278
Col@@ 6277
menu 6276
comfort 6273
trägt 6273
sionen 6272
klare 6271
Cas@@ 6270
freue 6270
automatically 6269
liber@@ 6269
bedarf 6268
ßen 6268
Instrumente 6266
entschieden 6264
ical 6262
star@@ 6262
beschlossen 6261
Zeichen 6260
vorgesehen 6258
cross 6253
Technologien 6251
ir 6251
zug 6249
Green 6248
ef@@ 6248
ire 6246
Kunden@@ 6243
garden 6243
š@@ 6243
properly 6242
acts 6235
electronic 6233
Wor@@ 6232
sierung 6232
likely 6231
De 6230
Anspruch 6226
Regelung 6226
broad 6221
gefordert 6218
worth 6218
path 6217
sagt 6217
mehreren 6214
uni@@ 6209
Standards 6208
Fe@@ 6207
Adresse 6206
Inhalte 6205
geändert 6204
konkrete 6204
anten 6203
uri@@ 6202
Währung 6201
außer 6201
nt 6200
Human 6199
gabe 6199
Sen@@ 6195
enst@@ 6195
Min@@ 6193
ierung 6192
Christian 6190
Fr@@ 6185
wären 6184
Brussels 6181
tw@@ 6179
poli@@ 6175
provision 6175
,@@ 6173
Produktions@@ 6170
Fest@@ 6168
Tran@@ 6167
Produkten 6161
spirit 6161
dealing 6160
street 6160
z. 6159
Video 6158
anti@@ 6158
Einigung 6154
elt 6153
Monate 6152
Stellungnahme 6152
7.@@ 6151
facing 6151
schreiben 6151
48 6150
stu@@ 6150
Pri@@ 6149
games 6138
trust 6135
duty 6134
Middle 6133
ay 6133
installation 6133
Ausbildung 6132
verbessert 6130
angezeigt 6129
com 6127
Tier@@ 6124
Beitritt 6123
Fonds 6122
burg 6121
Neben 6119
98 6118
record 6118
euch 6117
Lan@@ 6114
Belarus 6113
ato 6111
Achtung 6110
eter 6110
Tätigkeit 6109
erg@@ 6109
summit 6104
bodies 6103
Selbst@@ 6101
´ 6101
hear 6097
Ban@@ 6092
AS 6091
powerful 6091
Einfluss 6085
CH@@ 6083
consideration 6081
February 6080
Engagement 6077
deten 6075
Its 6074
arbeitet 6074
han@@ 6074
char@@ 6072
Schul@@ 6070
Abschluss 6069
ität 6069
150 6066
authority 6066
collection 6066
flo@@ 6065
tik 6064
verfügbar 6063
ko 6060
zuletzt 6060
Kindern 6059
Tro@@ 6059
save 6059
Lesung 6058
thinking 6058
Fin@@ 6056
cia 6055
combat 6055
id@@ 6055
Besuch 6053
ligen 6052
bathroom 6050
cal@@ 6048
Hu@@ 6046
humanitarian 6042
klicken 6042
Wege 6041
entirely 6041
Kontakt 6037
rel@@ 6037
unbe@@ 6037
plants 6035
Czech 6034
Straße 6034
tage 6034
Suche 6033
animal 6032
ona 6030
At@@ 6028
ausdrücklich 6028
moderne 6018
DI@@ 6017
zen@@ 6016
ends 6015
fung 6015
nisse 6014
Then 6013
ca@@ 6012
siert 6012
propose 6009
geleistet 6008
tä@@ 6008
IP 6007
Veränderungen 6007
refer 6007
Verwaltungs@@ 6006
gli@@ 6006
darstellen 6005
hour 6005
Kern@@ 6003
aff@@ 6001
Cal@@ 5998
á 5998
Unfortunately 5997
Antrag 5996
Mu@@ 5996
vision 5996
testen 5993
seriously 5991
Außen@@ 5990
Einrichtungen 5989
Worte 5989
Star@@ 5985
Gemeinsamen 5984
finanzielle 5983
richtigen 5983
voller 5983
Gebieten 5982
Sea 5981
Vielen 5981
Ausgaben 5979
Konzept 5979
Prozent 5978
Familien 5977
Pan@@ 5977
sol@@ 5976
Schutz@@ 5974
functions 5973
IN 5972
rop@@ 5968
students 5967
ara 5966
Zweifel 5962
gelangen 5962
ey 5961
born 5960
eingehen 5959
ins@@ 5958
ently 5957
bil@@ 5955
2011 5953
promoting 5953
guest 5952
extensive 5951
Fischerei@@ 5950
ear@@ 5950
arbeit 5949
usually 5948
warm 5948
Swiss 5947
welcher 5947
Ter@@ 5946
dient 5946
diskutieren 5946
stoffe 5944
swimming 5943
defence 5941
Medi@@ 5939
sho@@ 5936
wollte 5936
ye 5934
durchaus 5931
followed 5931
Klein@@ 5930
benutzen 5930
losen 5927
Rede 5922
markt 5919
Zeitraum 5916
Zudem 5916
acht 5916
amen 5916
33 5914
MP@@ 5913
ame 5912
erklären 5912
konzentrieren 5911
Prioritäten 5910
Sommer 5909
fällt 5909
Kunst 5904
igen 5904
income 5904
informed 5903
paper 5901
Jetzt 5900
Transport 5900
delivery 5900
hu@@ 5900
sha@@ 5900
AG@@ 5896
Kl@@ 5896
stone 5895
ours 5890
presence 5890
fication 5889
Guest 5888
Gästebewertungen 5888
atic 5885
Mark@@ 5884
Funktionen 5883
opened 5883
screen 5881
Sprachen 5880
funktioniert 5880
tourism 5880
Nieder@@ 5879
erstellt 5876
seem 5875
spend 5875
Firstly 5872
track 5872
Menge 5869
Sub@@ 5868
Just 5867
dagegen 5866
founded 5865
Kal@@ 5864
alt 5863
flexibility 5862
bal@@ 5861
kom@@ 5861
Bürger@@ 5860
Code 5858
implementing 5858
Qualitäts@@ 5857
adoption 5857
99 5856
myself 5854
cat@@ 5853
Über 5852
Plat@@ 5851
Val@@ 5851
Einhaltung 5850
aspect 5850
applies 5848
element 5848
reg@@ 5847
election 5845
cli@@ 5844
gelegen 5842
degree 5841
Ca@@ 5838
darunter 5838
art@@ 5836
ha 5835
Forderungen 5834
minute 5833
stadt 5833
blo@@ 5831
ingen 5831
threat 5831
God 5830
unacceptable 5829
uss@@ 5829
aims 5828
Ka@@ 5825
Poland 5823
Research 5823
hon@@ 5821
leg@@ 5820
ah 5819
Name 5818
Herausforderung 5817
möglichst 5817
geschehen 5815
alismus 5813
kulturellen 5812
origin 5812
photo 5808
operations 5803
Bild@@ 5800
medical 5800
practices 5799
Hor@@ 5796
Reise@@ 5796
werte 5795
spielt 5794
Dienste 5793
criminal 5791
ars 5789
began 5786
Europeans 5785
Stärkung 5785
plus 5785
feststellen 5784
ved 5784
95 5783
gewährleistet 5781
experts 5780
played 5780
happened 5778
wahr@@ 5778
Fer@@ 5776
Hauses 5776
tradition 5776
debt 5772
Sorge 5771
д@@ 5771
regular 5767
Warum 5765
isch@@ 5765
fund 5764
Em@@ 5761
в@@ 5760
Dennoch 5759
AM@@ 5751
ion 5751
difference 5749
Star 5748
oren 5748
Wal@@ 5747
lig 5747
Aspekt 5746
marketing 5745
Switzerland 5742
sieren 5742
Spa 5739
white 5739
actual 5738
unver@@ 5737
Ap@@ 5736
SP@@ 5736
unto 5733
Status 5731
ktion 5731
Arbeiten 5730
lungs@@ 5729
opposition 5728
zeit@@ 5728
Board 5727
bek@@ 5727
Dom@@ 5726
kte 5726
,00 5725
hingewiesen 5724
Barroso 5723
Ren@@ 5723
forget 5723
entweder 5722
tourist 5722
nu@@ 5721
failure 5719
informieren 5719
Ü@@ 5719
format 5717
terrace 5714
Leider 5713
Texte 5711
Zweck 5711
ki 5711
reasonable 5711
schwierig 5709
Des@@ 5708
select 5707
respond 5706
Energi@@ 5704
stan@@ 5704
differences 5703
fahrt 5698
geo@@ 5696
ine@@ 5696
kur@@ 5690
lokalen 5689
angesprochen 5684
walking 5684
Frankfurt 5683
feature 5682
nor@@ 5679
Trans@@ 5678
ple@@ 5678
Schweiz 5677
Autom@@ 5674
Programms 5672
lo 5672
chs 5670
ik@@ 5670
politics 5669
tour 5669
Mio. 5668
Leistungen 5666
Each 5665
ched 5665
cul@@ 5664
haus 5663
Aufnahme 5659
Arbeitslosigkeit 5658
networks 5657
statements 5656
reducing 5654
essen 5652
ier 5650
Dokument 5647
einiger 5647
gegenwärtigen 5646
stand@@ 5645
zing 5645
lie@@ 5643
unterstütze 5642
stat@@ 5639
Prä@@ 5638
pan@@ 5636
door 5634
ON 5632
erleben 5630
Zeiten 5629
Februar 5627
Meiner 5626
US@@ 5625
meetings 5625
Justice 5619
bedingungen 5618
gewinnen 5617
demokratische 5614
teilweise 5614
betrachtet 5613
unfortunately 5613
CO2 5612
ss 5612
län@@ 5611
jederzeit 5607
Vergleich 5604
50@@ 5602
Pap@@ 5601
attempt 5598
concrete 5598
playing 5598
Nord@@ 5594
Boo@@ 5593
appears 5593
fixed 5592
Dollar 5590
lige 5589
Hintergrund 5588
pol@@ 5588
fied 5584
http 5583
.00 5582
verfolgt 5582
ordnung 5580
übrigen 5580
gegenwärtig 5579
stellte 5578
Hin@@ 5576
Afrika 5575
Webseite 5574
fying 5571
Can@@ 5570
race 5565
genuine 5564
Gro@@ 5562
Modell 5560
regionalen 5560
syn@@ 5560
Teile 5559
Wer@@ 5558
unabhängig 5558
monetary 5556
buy 5555
Angaben 5554
inside 5552
ingly 5550
tätig 5549
establishment 5548
permanent 5547
metres 5545
producers 5545
Ei@@ 5540
Partnerschaft 5539
Irish 5538
nächste 5537
überprüfen 5537
Because 5536
estate 5534
recognition 5533
gebiet 5531
Irland 5530
calling 5530
ced 5527
Open 5525
balanced 5524
wonderful 5524
absolut 5521
fresh 5519
connected 5516
ised 5516
haft 5515
ET@@ 5514
prior 5514
served 5514
dangerous 5511
pleasant 5508
told 5507
Kat@@ 5506
gave 5504
erfolgen 5502
raise 5500
uren 5500
seek 5498
vorliegenden 5498
Sil@@ 5493
tere 5493
Str@@ 5490
dennoch 5490
mark@@ 5490
introduce 5489
liebe 5488
cing 5487
Überwachung 5487
cho@@ 5486
exclusive 5486
Priorität 5483
schutz@@ 5482
domestic 5481
peaceful 5480
Ja 5479
went 5478
feld 5477
Bus@@ 5475
besuchen 5475
helpful 5473
24@@ 5471
geeignet 5469
Cam@@ 5468
UR@@ 5468
ologie 5467
Stand 5466
gestalten 5465
ländern 5465
Kingdom 5464
lands 5464
34 5462
Trade 5458
ct 5458
easier 5458
items 5458
post@@ 5456
camera 5455
core 5454
Bio@@ 5452
folgende 5451
uner@@ 5449
Anwendungen 5447
att@@ 5446
sides 5443
won 5443
Bra@@ 5441
aren 5441
Geschäftsordnung 5438
Once 5437
Sport 5436
cher@@ 5436
plan@@ 5436
és 5435
entstehen 5434
Kan@@ 5433
Station 5433
stock 5432
Erklärungen 5430
ark@@ 5430
super@@ 5429
Apartments 5428
conclusions 5428
hands 5428
Health 5427
erforderlichen 5427
inform 5425
sel 5425
carefully 5423
detail 5422
speziell 5422
Analyse 5421
Entwicklungen 5421
ahead 5421
asylum 5421
Polen 5420
dank 5420
larger 5417
daten 5416
erstellen 5416
erscheint 5415
verbundenen 5414
buildings 5413
usw. 5413
structures 5412
heraus@@ 5411
Forum 5410
Verpflichtung 5410
improvement 5410
wenigen 5410
Problemen 5407
numbers 5407
generally 5404
spar@@ 5404
Wissen 5402
amm@@ 5402
condition 5402
impossible 5401
aufmerksam 5399
oni@@ 5396
As@@ 5394
fordert 5392
ica 5392
si 5392
.... 5391
Globalisierung 5391
Österreich 5391
Madrid 5390
urgent 5390
Eing@@ 5389
Pakistan 5389
voice 5388
asse 5387
Democrats 5386
Regelungen 5385
starke 5385
becomes 5384
positiv 5384
Fortschritt 5381
ams 5380
bes 5380
Test@@ 5379
Best 5378
rightly 5378
Rechnung 5376
Film 5375
punkt 5375
tät 5375
Zeit@@ 5373
cards 5372
vorhanden 5371
196@@ 5369
Beschäftigungs@@ 5369
inen 5368
Bewertung 5367
guarantees 5366
Griechenland 5365
ath@@ 5364
average 5363
ack 5362
fähigkeit 5362
win 5360
ID@@ 5359
asi@@ 5359
36 5358
immediate 5358
unterschiedliche 5358
desire 5357
träge 5357
ological 5355
halt 5354
lich@@ 5354
sischen 5354
Entwurf 5353
exp@@ 5353
strongly 5352
boo@@ 5350
convinced 5348
Sinn 5346
einsetzen 5345
fear 5345
evidence 5344
ged 5344
gem 5343
wishes 5343
erende 5342
heiten 5341
sem@@ 5339
ath 5336
ME@@ 5335
instance 5335
shop 5334
Worten 5333
zufrieden 5333
23@@ 5332
sec@@ 5332
beds 5331
Angesichts 5329
shared 5327
ella 5326
sensitive 5326
EADS 5325
dlich 5325
elected 5325
closer 5324
Familien@@ 5322
Kompromiss 5322
Syn@@ 5322
jeweils 5322
Großbritannien 5321
finance 5320
2013 5318
Moment 5318
benötigt 5317
break 5317
establishing 5317
Richtlinien 5316
Post@@ 5315
veröffentlicht 5315
Brüssel 5314
Mis@@ 5313
nis@@ 5313
ckt 5312
picture 5312
Comp@@ 5311
hervor@@ 5310
agencies 5309
African 5306
client 5306
kor@@ 5305
War 5302
persönlich 5302
ss@@ 5301
dete 5300
Internet@@ 5298
Palestinian 5298
Pol@@ 5298
remind 5298
enterprises 5297
geschrieben 5297
Maße 5294
Regulation 5292
anyone 5292
tz 5292
zo@@ 5292
institution 5291
min 5291
Meter 5289
tures 5284
läuft 5283
ado 5282
ante 5282
availability 5281
miteinander 5281
Auto 5280
Bush 5280
Pas@@ 5280
spent 5279
truly 5278
Gesetz 5277
vehicles 5277
comment 5276
las 5274
paragraph 5273
tin 5273
ination 5272
honourable 5271
programs 5270
Turkish 5269
kten 5267
zentrum 5267
greifen 5266
tic@@ 5262
97 5261
rat 5258
AB@@ 5255
grounds 5255
hab@@ 5254
Nevertheless 5252
commitments 5252
Agrar@@ 5251
EG 5250
Mitteln 5250
Bas@@ 5247
color 5247
Due 5245
figures 5245
gri@@ 5245
wesentlichen 5245
mü@@ 5242
sort 5241
far@@ 5240
Mc@@ 5238
south 5238
vari@@ 5237
Agentur 5234
cr@@ 5234
Stellen 5233
bear 5232
gruppen 5232
elegant 5228
houses 5228
sets 5227
definition 5226
stei@@ 5226
Schengen 5225
glich 5225
associated 5223
LA@@ 5222
experienced 5220
enormous 5219
reicht 5219
sichern 5219
charged 5218
ungs- 5217
religious 5214
offensichtlich 5212
eingerichtet 5211
territory 5211
John 5208
wirtschaft 5208
Bedürfnisse 5204
Entschließungsantrag 5204
ISO 5204
Last 5204
satz 5203
Europäer 5199
gene 5197
perspective 5196
Verkehr 5194
consumption 5193
weiterer 5193
cap@@ 5191
ön@@ 5191
gain 5190
geschützt 5190
Home 5187
Prime 5187
eingeführt 5187
Golf 5186
ash@@ 5186
participate 5186
colleague 5185
gruppe 5185
sta 5185
Kritik 5184
continues 5184
Abend 5182
fy 5182
membership 5182
pra@@ 5182
obtain 5181
Fraktionen 5179
According 5177
digen 5176
nahme 5176
Geld@@ 5175
greatest 5175
Formen 5174
continued 5173
unless 5171
tte 5170
Beteiligung 5169
schl@@ 5169
Installation 5168
equality 5168
Besucher 5166
Arten 5165
Most 5164
Constitution 5163
Gel@@ 5162
verlassen 5162
A5 5161
beteiligt 5161
schul@@ 5161
nennen 5160
äl@@ 5160
37 5159
Elemente 5159
Gesch@@ 5156
gebaut 5155
Grenz@@ 5153
phase 5153
Pu@@ 5152
failed 5151
tasks 5151
candidate 5149
alist 5148
bestätigt 5147
mag 5147
Rom@@ 5143
listen 5143
1994 5142
fan@@ 5142
Gleichzeitig 5141
Gründe 5141
Mann 5140
wel@@ 5140
französischen 5139
dra@@ 5138
0er 5135
components 5134
Aktionen 5132
Aussch@@ 5130
trading 5130
Ideen 5129
ue 5128
Durch@@ 5127
Beihilfen 5124
alo@@ 5122
Herstellung 5121
Innen@@ 5120
ambitious 5120
changing 5120
obviously 5120
führenden 5119
Märkte 5117
display 5117
person@@ 5117
schafts@@ 5117
glichen 5116
finde 5115
exercise 5112
sam@@ 5111
trag 5110
stein 5109
export 5106
contrary 5104
minister 5103
exc@@ 5102
ECU 5101
typical 5100
Grundsatz 5099
ID 5099
economies 5099
rück@@ 5097
PPE 5094
Prinzip 5092
ising 5090
etz@@ 5089
outcome 5087
cra@@ 5085
bauen 5084
tiven 5084
analy@@ 5083
keinerlei 5082
ren 5081
vorschlagen 5081
Bet@@ 5080
gelöst 5078
stattfinden 5078
tiges 5077
Bro@@ 5076
ball 5073
passed 5073
einander 5072
We@@ 5070
internationaler 5070
drawn 5069
Mitte 5068
lö@@ 5068
arten 5064
Klima@@ 5063
ths 5063
ner@@ 5060
profitieren 5060
article 5059
tens 5058
etc. 5057
sämtliche 5057
Gas@@ 5054
studies 5054
ware 5054
Dec@@ 5053
aum 5053
translation 5053
email 5050
führte 5050
character 5048
tsp@@ 5048
d. 5047
telephone 5047
Click 5046
absolute 5046
ausreichend 5046
firm 5046
Foreign 5044
spending 5044
Empfehlungen 5043
back@@ 5043
gelungen 5043
96 5042
cuisine 5040
8.@@ 5037
Absatz 5036
Association 5036
Santa 5036
Botschaft 5035
tal 5034
weight 5032
Regel 5029
-- 5028
Bre@@ 5027
Mau@@ 5027
purchase 5027
Paket 5026
sign@@ 5026
geln 5025
achieving 5023
dro@@ 5022
fall@@ 5022
produk@@ 5022
dom@@ 5021
kaufen 5020
49 5018
Indien 5017
multi@@ 5017
print 5017
vorgeschlagenen 5016
Gal@@ 5015
bt 5014
advanced 5012
reservation 5012
organised 5010
Werk@@ 5008
advance 5007
Umfang 5005
possibilities 5005
manage 5004
unable 5003
asking 5002
ari 5001
dri@@ 5001
ships 4999
solcher 4999
III 4998
Nu@@ 4998
größeren 4996
fun 4995
described 4993
Tu@@ 4992
Kirche 4991
rat@@ 4991
Kommunikation 4990
winter 4990
learning 4989
werk@@ 4988
65 4987
rechtlichen 4987
komm@@ 4986
himself 4983
dungen 4982
schlagen 4982
dor@@ 4979
195@@ 4977
Spezi@@ 4977
cking 4977
Tour 4975
Ereignisse 4974
forced 4974
ierte 4974
obligations 4973
Ziel@@ 4972
л@@ 4969
campaign 4968
Fra@@ 4966
rit@@ 4964
Buch@@ 4963
zentrale 4963
intervention 4962
überall 4961
Titel 4960
reden 4959
insurance 4957
länger 4957
mögliche 4956
stehenden 4956
sation 4955
kitchen 4954
ley 4952
Beschreibung 4950
Dimension 4950
Hoffnung 4950
ungsan@@ 4950
ink 4949
Grunde 4948
Ir@@ 4948
fire 4947
Jahrhunderts 4945
names 4945
Saint 4944
allowing 4944
posi@@ 4941
yesterday 4941
controls 4940
sum 4940
totally 4940
announced 4939
Produk@@ 4938
steigen 4938
Res@@ 4937
Vielzahl 4937
leader 4937
expenditure 4936
work@@ 4936
Gei@@ 4935
Mac@@ 4934
danach 4932
individuals 4932
nationaler 4932
expression 4931
großes 4931
Breakfast 4930
entitled 4930
ero@@ 4930
ely 4929
istische 4928
sun@@ 4928
inform@@ 4926
Netherlands 4925
welt 4925
55 4923
arian 4923
Anti@@ 4922
Gott 4922
Liberalisierung 4922
She 4921
Klicken 4919
betrachten 4917
lä@@ 4916
ited 4915
AL 4914
Größe 4914
Such 4914
fle@@ 4914
gs@@ 4913
wood 4913
Eindruck 4912
Enterprise 4912
fel@@ 4912
umfassende 4912
gegangen 4909
einverstanden 4907
garantiert 4907
cke 4904
Super@@ 4903
initial 4903
Can 4901
moving 4901
Indi@@ 4900
schönen 4900
factors 4899
temp@@ 4899
Verständnis 4898
festgestellt 4898
Realität 4897
geschieht 4897
umfasst 4897
Stu@@ 4895
betroffenen 4895
Treffen 4894
granted 4894
laid 4893
pointed 4893
Anteil 4891
sale 4891
Eastern 4890
registered 4890
ehr@@ 4889
orders 4888
vers 4888
zeichen 4888
neither 4887
täglich 4887
Char@@ 4885
ester 4885
flow 4885
trag@@ 4885
Schlüssel@@ 4881
Gebiete 4878
conclude 4875
rufen 4875
strengthening 4874
payments 4869
ständigen 4868
h. 4867
limits 4867
merely 4866
ca. 4865
abgeschlossen 4862
sters 4862
dimension 4859
äch@@ 4858
Sur@@ 4857
nation 4856
sobald 4854
Download 4853
prevention 4853
Ski@@ 4852
Mitgliedern 4851
ama 4851
ering 4851
Yet 4850
kraft 4850
promotion 4850
Hersteller 4849
Air 4848
wirken 4847
Druck@@ 4844
verloren 4844
continuing 4843
tional 4843
responsibilities 4842
39 4839
completed 4839
fiscal 4839
signal 4838
Garten 4836
Komfort 4834
ativen 4833
erhält 4833
recommendations 4833
acceptable 4830
database 4830
jüngsten 4830
politisch 4828
felt 4827
models 4827
sonst 4827
Mel@@ 4823
independence 4823
contain 4822
38 4821
His 4820
wn 4820
advertising 4819
mobili@@ 4819
sup@@ 4819
Multi@@ 4818
trau@@ 4816
zeichnet 4816
etten 4814
governance 4814
Vol@@ 4813
Diskriminierung 4812
shops 4811
Flexibilität 4810
Gesetzgebung 4808
allgemeine 4806
600 4805
entsprechen 4805
season 4805
42 4804
combination 4804
situations 4800
weapons 4799
alisation 4798
lig@@ 4798
monitor 4798
tigkeit 4798
Gegenteil 4795
Street 4795
daraus 4793
discussing 4793
nis 4793
Agency 4791
anische 4791
ausschuss 4791
werke 4791
betroffen 4789
Geb@@ 4787
attractive 4783
Links 4782
Summit 4782
ertes 4781
Stil 4779
net@@ 4778
district 4777
Jeder 4775
frei@@ 4775
tar@@ 4774
ick 4772
Every 4771
ungs 4771
button 4770
consensus 4770
tter 4770
brand 4769
existence 4768
spor@@ 4767
ener 4766
garantieren 4766
Plan@@ 4765
Voll@@ 4765
compared 4765
Sie@@ 4762
targets 4762
übertragen 4762
08 4761
black 4761
spezi@@ 4761
reliable 4759
resort 4758
rechten 4757
44 4755
Phase 4755
courses 4753
Private 4752
ching 4752
exhibition 4752
write 4751
putting 4750
Control 4749
Koordinierung 4748
informiert 4748
09 4747
nom@@ 4747
spacious 4746
sh 4745
groß 4744
angeboten 4741
Banken 4740
Environment 4740
Monat 4737
court 4737
Dem@@ 4735
obvious 4733
• 4733
Kom@@ 4730
Musik@@ 4729
Tradition 4729
fälle 4728
wider 4728
pul@@ 4726
Lie@@ 4725
gegründet 4724
pictures 4721
Greek 4720
CA@@ 4719
spezielle 4719
Mil@@ 4717
spiel@@ 4717
Grundrechte 4716
ater 4715
britischen 4715
ulation 4715
vern@@ 4714
07 4712
regi@@ 4710
MO@@ 4708
einfache 4707
nachhaltige 4707
All@@ 4706
explo@@ 4706
tab@@ 4705
Shi@@ 4704
bringing 4704
ring 4698
staatlichen 4697
tend 4696
Mas@@ 4694
Erhöhung 4691
Minutes 4691
Patienten 4690
Willen 4687
bit@@ 4687
800 4686
Risiken 4686
gutes 4686
standing 4686
Voraussetzungen 4685
yst@@ 4685
ancient 4684
installed 4684
sou@@ 4684
starken 4684
ba 4683
fes@@ 4683
wards 4681
enables 4679
gehalten 4679
lie 4678
Fran@@ 4676
Option 4676
skills 4676
window 4673
seeking 4671
zz@@ 4671
Another 4670
dre@@ 4670
Risiko 4667
background 4666
cars 4666
Wettbewerbs@@ 4665
disease 4665
wil@@ 4665
Ã 4665
Niveau 4662
alised 4662
č@@ 4662
Erd@@ 4660
Leistung 4660
setzung 4659
communities 4658
mechanism 4658
claims 4657
machines 4654
dly 4653
tives 4652
beaches 4650
nah@@ 4650
substantial 4650
addressed 4648
bor@@ 4647
gers 4647
tests 4644
zuvor 4643
Cap@@ 4642
Unabhängigkeit 4642
diskutiert 4642
Romania 4641
Foundation 4640
zeu@@ 4640
regeln 4639
Casino 4638
angeht 4638
üh@@ 4638
tritt 4637
indi@@ 4636
tried 4636
Pra@@ 4635
ç@@ 4635
haften 4634
mm@@ 4634
beinhaltet 4632
kept 4632
Prüfung 4631
chosen 4631
Are 4630
dé@@ 4630
science 4630
Prodi 4628
besseren 4628
urge 4627
JavaScript 4625
Universität 4625
besitzt 4625
bewegen 4625
goals 4625
bli@@ 4624
9.@@ 4623
Those 4622
Pl@@ 4621
consistent 4621
ian 4620
ists 4620
pal@@ 4620
television 4620
Überprüfung 4620
Kr@@ 4619
Hal@@ 4618
extended 4618
legung 4618
reisen 4618
atische 4617
Methode 4616
tical 4615
reagieren 4612
cou@@ 4611
Hinweis 4610
factor 4607
constantly 4606
Süd@@ 4605
flu@@ 4605
Zahlen 4604
extend 4604
Königreich 4602
ländlichen 4600
Great 4599
agency 4599
bezeichnet 4599
nations 4599
band 4598
seite 4597
fäl@@ 4596
ont 4596
tag@@ 4593
End@@ 4592
hof 4592
Beifall 4591
Friedens@@ 4591
texts 4591
Unternehmens@@ 4590
arms 4590
beginnt 4590
einerseits 4590
erfordert 4590
successfully 4590
contained 4587
Bildungs@@ 4586
vollkommen 4585
Pat@@ 4584
deep 4584
arrival 4582
trä@@ 4582
utter 4582
released 4581
sicherstellen 4580
Energy 4578
SO@@ 4578
einzigen 4578
tre 4577
Fa@@ 4576
Prin@@ 4576
zählen 4576
manchmal 4575
erhöht 4574
ierten 4572
air@@ 4571
bezieht 4570
cc@@ 4570
empfehlen 4570
hergestellt 4570
Betrieb 4569
Wirkung 4569
stoff 4569
Latin 4568
Rau@@ 4568
ery 4568
diversity 4567
staaten 4566
recommend 4565
perfectly 4564
speziellen 4564
wichtigste 4563
Tit@@ 4562
fill 4562
Aufbau 4561
ically 4561
stimmt 4560
dienst 4559
packages 4559
betont 4558
books 4558
mittels 4557
ands 4556
Delegation 4555
Alliance 4553
Sehenswürdigkeiten 4553
Kenn@@ 4552
Kontroll@@ 4552
explain 4552
Kollege 4550
wall 4550
positiven 4549
middle 4548
Fotos 4547
meters 4547
accessible 4543
cy@@ 4543
ti 4543
advice 4542
fun@@ 4542
1990 4540
Mer@@ 4540
someone 4540
Teilen 4538
adequate 4538
chi@@ 4538
hau@@ 4537
zustimmen 4537
coffee 4536
Thus 4535
Verhältnis 4535
my@@ 4534
ning 4533
piece 4533
Klimawandel 4532
bildung 4531
Gegensatz 4530
ersch@@ 4530
üsse 4529
fern 4528
seitens 4528
Austrian 4526
combined 4526
ku@@ 4526
Industri@@ 4524
zy@@ 4523
Deutsche 4522
PS 4522
biggest 4522
suite 4522
older 4521
shower 4521
echte 4520
jungen 4520
Terrasse 4517
causes 4517
Note 4514
Rules 4514
Volks@@ 4514
Begriff 4513
binding 4513
bio@@ 4512
Fälle 4511
capable 4508
amb@@ 4507
claim 4507
gestern 4506
Politiker 4504
Bedenken 4503
saw 4503
aci@@ 4502
Start 4498
update 4498
hot 4497
sicht 4497
surrounding 4496
attack 4495
recognise 4495
gent@@ 4494
wunder@@ 4494
tly 4493
migration 4492
akzeptiert 4491
ust 4491
Einklang 4490
Pe@@ 4489
tenen 4489
Sweden 4488
alter 4488
ined 4486
mehr@@ 4486
advantages 4485
Grundsätze 4484
opp@@ 4484
Mindest@@ 4483
unternommen 4483
Welche 4482
compliance 4482
Market 4480
Anpassung 4479
Seine 4479
architecture 4479
guide 4476
welchen 4476
führ@@ 4473
guaranteed 4473
contents 4471
befassen 4470
install 4470
dealt 4467
Inn 4466
Manager 4466
PHP 4466
Atom@@ 4465
sten@@ 4462
wodurch 4462
corporate 4460
identi@@ 4460
ink@@ 4460
lag@@ 4459
Liefer@@ 4458
val@@ 4458
м@@ 4458
Meeres@@ 4457
Mess@@ 4457
Kno@@ 4455
Nacht 4455
Unterschiede 4455
register 4453
gemein@@ 4451
regret 4451
route 4451
Farb@@ 4450
tig@@ 4450
trifft 4450
Gesetze 4449
Time 4449
relax 4449
Internationalen 4448
Media 4448
Poli@@ 4448
derzeitigen 4448
Vorteil 4447
thereby 4447
Pf@@ 4446
mass 4446
Wil@@ 4444
valid 4444
Net@@ 4443
Schi@@ 4442
Comm@@ 4441
mutual 4441
delegation 4440
lets 4440
cle@@ 4438
strategie 4437
nochmals 4435
Bestandteil 4434
Ob@@ 4434
hauptsächlich 4434
Mand@@ 4433
Reaktion 4433
category 4433
delay 4433
Anliegen 4431
England 4431
competence 4431
Vienna 4430
eng 4430
sanctions 4430
Innen 4429
deli@@ 4429
1992 4427
EF@@ 4427
Vertrags@@ 4427
Sanktionen 4426
consultation 4426
toren 4424
fällen 4423
planned 4423
ED@@ 4421
64 4420
dliche 4420
emphasise 4418
Reise 4417
liste 4417
attacks 4416
Find 4415
alle@@ 4413
massive 4412
row 4411
Dienst 4410
dedicated 4410
operate 4410
deiner 4409
konkreten 4406
tom@@ 4405
Leitlinien 4404
sy@@ 4404
technological 4404
vit@@ 4403
gezogen 4402
rapid 4402
talks 4402
andererseits 4398
National@@ 4397
recovery 4397
guter 4396
ward 4396
Bedarf 4395
remove 4392
trip 4392
ports 4391
club 4389
enk@@ 4389
museum 4389
My@@ 4387
Fuß 4386
Männer 4386
anz 4385
beschäftigt 4385
mechanisms 4385
vielmehr 4385
41 4384
Resort 4383
ai 4383
persönliche 4381
xes 4381
öl@@ 4381
Pro 4380
Umständen 4380
booking 4380
cm 4378
Wa@@ 4377
host 4377
keeping 4377
coast 4376
Diskussionen 4375
Gast@@ 4374
Ost@@ 4374
gewisse 4374
lang@@ 4374
MS 4373
fühlen 4373
devices 4372
produktion 4371
ata 4370
identity 4370
qualified 4370
Financial 4367
Player 4367
memory 4367
ée 4367
Dra@@ 4366
Michael 4366
Wirtschafts- 4365
Führung 4364
deliver 4362
Struktur 4361
ki@@ 4361
Betriebs@@ 4360
leiden 4360
object 4360
Wegen 4359
examples 4358
unden 4358
zung 4357
fore@@ 4356
river 4356
System@@ 4355
ergeben 4355
genen 4355
Ebenso 4353
discover 4353
geöffnet 4353
istischen 4352
Landwirte 4351
Ordnung 4349
physical 4349
u. 4349
Q 4348
Rad@@ 4347
bul@@ 4347
cas@@ 4347
stabili@@ 4345
spek@@ 4343
sun 4342
Erde 4340
Hostelsclub 4340
che@@ 4339
highlight 4339
verlieren 4339
Dor@@ 4338
betreffen 4338
Versuch 4337
rap@@ 4337
holidays 4336
hostels 4334
ischem 4334
reception 4334
zugleich 4334
Vorbereitung 4333
sized 4333
ining 4332
Übereinkommen 4332
Technik 4331
globale 4331
speakers 4331
Verbrechen 4330
north 4328
wers 4328
Studio 4327
evaluation 4327
Federal 4325
kürzlich 4325
Fähigkeit 4324
ausschusses 4324
representative 4324
sam 4324
storage 4321
nearby 4320
stellungen 4320
seven 4319
organization 4318
tiv 4318
conduct 4317
ord 4317
surface 4317
TH@@ 4316
Tiere 4316
maintenance 4316
Sha@@ 4315
harmon@@ 4313
zogen 4312
schneller 4311
licherweise 4310
Kri@@ 4309
oral 4309
sli@@ 4309
damals 4308
treated 4308
ziert 4307
Gefühl 4306
herzlich 4305
Festival 4304
Städte 4304
Hälfte 4303
Pic@@ 4303
behandeln 4303
Nachdem 4302
Völker 4302
Berücksichtigung 4301
zw@@ 4301
onto 4300
Paper 4298
waiting 4298
43 4296
title 4296
ty@@ 4296
Nutzer 4295
praktisch 4295
artists 4293
aufen 4293
affect 4292
behörden 4292
dem@@ 4291
letter 4291
tour@@ 4291
spezifischen 4290
zusätzlich 4290
beauty 4289
Company 4288
Öl@@ 4288
Generation 4287
relativ 4287
railway 4286
Hamburg 4285
Verträge 4285
rech@@ 4285
weiteres 4285
wh@@ 4285
Ki@@ 4284
hel@@ 4282
device 4281
Chamber 4280
eck@@ 4280
resolve 4278
gewählt 4277
disposal 4276
tos 4276
SI@@ 4274
dat@@ 4274
determined 4274
intensi@@ 4274
spread 4274
Sor@@ 4271
100@@ 4270
Fischerei 4270
fal@@ 4270
Flu@@ 4269
approval 4267
igkeit 4267
requested 4265
47 4264
ght 4263
ther 4263
wichtiges 4263
Institute 4262
abhängig 4261
Antworten 4260
association 4259
gets 4258
ola 4258
и 4256
leads 4255
05 4254
tigung 4254
vehicle 4253
default 4252
previously 4252
anerkannt 4251
ang@@ 4251
knows 4251
refugees 4251
s.@@ 4250
fit 4249
story 4249
Inseln 4248
reply 4246
Methoden 4244
resulting 4244
keiner 4243
tan 4243
combating 4241
RO 4240
beachten 4240
Laufe 4239
regionale 4238
wind 4238
Korea 4237
adi@@ 4236
Vis@@ 4235
arch@@ 4235
error 4235
fic@@ 4234
brings 4233
temporary 4233
Charakter 4232
Sta@@ 4231
Licht 4230
platform 4230
intention 4229
wn@@ 4229
Maßnahme 4228
onn@@ 4228
Waren 4227
rejected 4227
rep@@ 4226
Rechts 4225
IG@@ 4224
stru@@ 4224
trägen 4223
church 4222
stoffen 4222
komplett 4221
sions@@ 4221
attitude 4220
buffet 4220
m2 4220
ober@@ 4220
rent 4220
wait 4219
IA 4217
Beim 4216
Fil@@ 4216
sell 4215
verk@@ 4215
Details 4214
dy@@ 4214
pas@@ 4214
primarily 4214
Amerika 4213
Sar@@ 4213
junge 4213
port@@ 4212
Data 4211
gliche 4211
willing 4210
eli@@ 4209
к@@ 4209
Men@@ 4208
les@@ 4208
mei@@ 4207
ctions 4205
einzelne 4204
med 4204
verstärkt 4204
Empfehlung 4202
improvements 4202
2,@@ 4201
Bis 4201
approximately 4201
Effizienz 4200
Strategien 4200
lichem 4200
Ministers 4199
gone 4199
cation 4197
Anlagen 4196
apo@@ 4196
cy 4196
verlangen 4196
Rooms 4195
sprache 4195
Vielleicht 4194
disaster 4194
fraud 4194
omm@@ 4193
species 4193
26@@ 4190
Absicht 4190
Ausland 4190
Mein 4190
dritten 4190
NL 4189
Geist 4188
patients 4188
relaxing 4188
Firmen 4186
0,@@ 4185
dge 4185
flight 4185
Infrastruktur 4184
graphic 4184
dynamic 4183
faced 4183
Card 4181
AN 4180
Martin 4180
tut 4179
ented 4177
Hol@@ 4176
eigen@@ 4175
iel@@ 4175
nte 4174
übernommen 4174
werfen 4173
dad 4172
jährlich 4172
holding 4171
outstanding 4171
Aussicht 4170
ail@@ 4170
bezug 4170
kes 4170
regelmäßig 4170
Dokumente 4169
Unterkunft 4168
decades 4167
Freude 4163
appeal 4163
schöne 4163
Agrarpolitik 4160
Rome 4159
amongst 4158
grundlegenden 4158
quote 4158
ernst 4157
extreme 4155
Any 4154
Fol@@ 4154
investments 4154
rapporteurs 4153
Charter 4152
exists 4152
jemand 4152
comply 4151
hafte 4151
Grenze 4150
touch 4150
truth 4149
Definition 4147
solve 4147
stal@@ 4147
fte 4146
peoples 4145
Fisch@@ 4144
Sprach@@ 4144
kostenlos 4144
Arab@@ 4143
Peter 4143
industries 4143
oo@@ 4143
Gleich@@ 4142
Untersuchung 4142
registration 4142
visible 4142
früher 4140
utili@@ 4140
interface 4138
prepare 4138
Dutch 4137
Handel@@ 4137
Trotz 4137
don@@ 4137
ately 4136
fach@@ 4136
Lebensmittel@@ 4135
helping 4135
seien 4134
leb@@ 4133
leadership 4132
Tal@@ 4131
represented 4131
constructive 4130
fuel 4129
primary 4129
angemessen 4128
liability 4128
suffering 4127
lieb@@ 4126
Rel@@ 4125
disp@@ 4124
square 4123
clo@@ 4122
compensation 4122
foot 4122
Kraft@@ 4121
Gre@@ 4119
cru@@ 4119
Menschen@@ 4118
Ratsvorsitz 4117
SE@@ 4116
künftig 4116
atives 4114
85 4113
entwicklung 4113
looks 4113
Sehr 4112
tischer 4112
affairs 4111
tene 4111
PL@@ 4110
meaning 4110
tenden 4110
п@@ 4110
obligation 4109
Lord 4108
dia 4108
3D 4107
aro@@ 4107
wasser@@ 4105
ze@@ 4105
ehen 4104
urban 4104
fort 4102
politicians 4102
schwierigen 4102
Zahlungs@@ 4101
renewable 4100
Voraussetzung 4099
führer 4099
inv@@ 4099
drugs 4098
rt 4098
46 4097
Both 4097
lia 4097
oh@@ 4097
substances 4097
accounts 4096
nden 4093
menschlichen 4092
origin@@ 4092
kin@@ 4091
lon@@ 4090
participants 4090
Palace 4089
mandate 4088
notice 4088
recognised 4088
Bewegung 4086
Obama 4086
Paul 4086
Wahrheit 4086
täts@@ 4086
у@@ 4086
Allgemeinen 4084
ate@@ 4084
arm@@ 4083
store 4083
turned 4083
burden 4082
dur@@ 4082
jahr 4082
liberalisation 4082
marked 4082
mobility 4082
Beh@@ 4081
aircraft 4081
Eigen@@ 4080
06 4077
THE 4077
mini@@ 4077
fla@@ 4076
Gedanken 4075
atory 4075
breite 4074
danger 4073
vis@@ 4073
Farben 4072
Ladies 4072
Liebe 4072
Mak@@ 4071
Support 4071
Weitere 4070
liert 4070
tag 4070
testing 4070
öh@@ 4070
Book 4068
Je@@ 4068
eth@@ 4068
Teilnahme 4067
Komp@@ 4066
niemand 4066
Buch 4064
firstly 4063
kul@@ 4063
radi@@ 4063
wesentliche 4063
High@@ 4062
Verfügbarkeit 4060
directives 4060
Auto@@ 4059
Geh@@ 4059
Pflicht 4058
aries 4058
bekannten 4058
Freunde 4057
Hon@@ 4057
Unternehmens 4057
attractions 4057
wagen 4056
Before 4055
anbieten 4054
forest 4049
Studie 4048
pension 4048
smaller 4048
Despite 4046
ideale 4045
ong 4045
chan@@ 4042
zweifellos 4042
Stunde 4041
deutsche 4041
sicher@@ 4040
nötig 4039
28@@ 4038
Struktur@@ 4038
entered 4038
The@@ 4036
dig 4036
bildet 4035
emphasis 4035
Schäden 4034
unit 4034
Global 4033
Mehr 4032
barer 4032
anda 4029
02 4028
Zustand 4028
nearly 4028
protecting 4028
Normen 4027
berühmten 4026
Haus@@ 4025
liefern 4025
tem@@ 4025
spiel 4024
bars 4023
block 4022
für@@ 4021
fighting 4020
mountains 4019
traditionellen 4019
weshalb 4019
mitteln 4018
uss 4018
Ferner 4016
reflect 4016
repeat 4016
strength 4016
Lebens 4015
200@@ 4014
chs@@ 4014
driving 4013
copy 4012
photos 4012
zufolge 4011
1993 4009
cri@@ 4009
minim@@ 4009
Nice 4008
kers 4008
umfassenden 4007
forum 4005
sat@@ 4005
satz@@ 4005
sinn@@ 4005
Other 4003
fail 4003
happens 4003
ov@@ 4003
pleasure 4003
ri 4002
aktive 4001
genauso 4001
spezifische 4001
Kyoto 4000
expectations 4000
ppen 4000
Harmonisierung 3999
fassen 3999
surrounded 3999
Überzeugung 3998
Tex@@ 3997
consists 3997
discharge 3997
Reg@@ 3996
Lam@@ 3995
dynam@@ 3995
naturally 3994
berei@@ 3993
gratulieren 3993
soweit 3992
beg@@ 3991
engine 3991
Del@@ 3990
OS@@ 3990
vo 3989
Entwicklungsländern 3988
pre 3986
bing 3985
ergriffen 3985
haltung 3984
karte 3984
ton@@ 3984
fand 3983
fonds 3983
arbei@@ 3980
ffen 3980
wiederum 3980
zimmer 3980
Verhalten 3979
debates 3979
Änderungsanträgen 3979
ül@@ 3979
brechen 3978
dienste 3977
elten 3977
requests 3977
03 3976
Is@@ 3976
van@@ 3975
öffnen 3975
involving 3974
personally 3973
Mus@@ 3972
eins 3972
intensive 3972
taxes 3971
interpre@@ 3970
sofern 3970
soft 3970
wealth 3970
р@@ 3970
arrangements 3968
Pen@@ 3967
Pr@@ 3967
luxury 3966
bericht 3965
gesellschaft 3964
Aufgrund 3963
Use 3963
umwelt@@ 3963
Hau@@ 3962
Vom 3959
schools 3959
whatever 3959
Ruhe 3958
fordere 3958
spo@@ 3957
treaty 3957
Material 3956
bers 3956
Netzwerk 3955
bedeuten 3955
opposed 3955
rail 3955
Log@@ 3954
finding 3954
Teilnehmer 3953
Zwei@@ 3952
author 3952
ay@@ 3952
zählt 3952
RE 3951
Strukturfonds 3951
chn@@ 3951
significantly 3951
Anfragen 3950
defend 3950
ences 3950
lar@@ 3950
Lake 3949
Maria 3949
bert 3949
Ant@@ 3948
ee 3947
yn@@ 3947
bas@@ 3946
gefördert 3946
Via 3945
Uni@@ 3943
AU@@ 3942
Bl@@ 3942
Quali@@ 3942
Schaden 3942
Tagung 3941
opposite 3941
wissenschaftlichen 3941
Sonnen@@ 3940
kam@@ 3940
näher 3940
riesigen 3940
acting 3939
betreffenden 3939
olo@@ 3938
White 3937
mode 3937
serves 3937
drawing 3936
Abkommens 3935
Veranstaltungen 3935
fi 3935
happening 3933
gek@@ 3932
involvement 3932
mati@@ 3931
rasch 3931
Motor@@ 3930
Erwartungen 3929
sole 3929
eck 3928
kinds 3928
tern@@ 3928
opinions 3927
03@@ 3926
ehemaligen 3926
feeling 3925
Hilfs@@ 3924
presentation 3923
abgelehnt 3922
kämpfen 3922
parliaments 3922
tigt 3921
appreciate 3920
Schweden 3919
künftigen 3918
mut@@ 3917
Eigenschaften 3916
assure 3915
ez 3914
Rule 3913
cop@@ 3913
gän@@ 3913
speci@@ 3913
kosten@@ 3911
sky 3909
Beach 3908
Vorschlägen 3906
Cro@@ 3904
Hostels 3904
getragen 3904
19. 3903
MEPs 3902
tis 3902
begonnen 3900
kulturelle 3898
Swedish 3896
esses 3895
nation@@ 3895
dir 3894
hinzufügen 3894
aufzunehmen 3893
rechts@@ 3893
Verbesserungen 3892
Wirklichkeit 3892
gkeit 3892
manufacturing 3892
Dan@@ 3891
millions 3891
Stellung 3890
ander@@ 3889
confirmed 3888
hervorheben 3888
Lauf@@ 3887
schätzen 3887
whilst 3887
Problems 3886
criticism 3886
browser 3885
lan 3885
operators 3885
USB 3884
umzusetzen 3884
Bay 3883
Wider@@ 3883
hilfe 3883
ol 3883
resolved 3883
Located 3881
esen 3881
RI@@ 3880
techn@@ 3880
niemals 3879
Übereinstimmung 3879
Van 3878
gens 3878
sprach@@ 3878
ziemlich 3877
Link 3876
bekämpfen 3876
ought 3876
zus@@ 3875
sieben 3874
Letz@@ 3873
Militär@@ 3873
250 3872
respective 3872
manufacturers 3871
Brenn@@ 3870
diseases 3870
ile 3870
tierung 3870
dert 3869
Emp@@ 3868
ard@@ 3868
sehe 3868
aj@@ 3867
equally 3867
replace 3866
stations 3864
behörde 3863
latter 3863
Thanks 3862
yes 3862
.de 3861
bahn 3861
resolutions 3860
beglückwünschen 3859
ett@@ 3859
landscape 3859
lieren 3859
Tages@@ 3858
yl@@ 3857
AR 3856
figure 3856
versions 3856
Einstellung 3855
grundlegende 3854
wesen 3854
constant 3852
ils 3852
southern 3852
shape 3851
vous 3851
höchste 3850
kop@@ 3850
sätze 3850
AP@@ 3849
Waffen 3848
aktivieren 3848
ET 3846
italienischen 3846
fähig 3845
Bank@@ 3844
aufgefordert 3844
ize 3844
ker@@ 3844
hän@@ 3843
privacy 3843
entscheidend 3842
Formular 3841
ativ 3841
auer 3841
bom@@ 3841
teren 3841
termin@@ 3841
Regime 3839
rely 3839
gol@@ 3838
Square 3837
bath 3837
Rumänien 3836
extension 3836
int 3836
Bus 3835
fruit 3833
mental 3833
Tod 3832
Vari@@ 3831
dig@@ 3831
ppe 3831
Angebote 3830
entgegen@@ 3830
oni 3830
Altstadt 3829
delivered 3829
rus@@ 3829
Nahen 3828
Such@@ 3828
begann 3828
Festlegung 3827
Körper 3827
ING 3825
historische 3825
Punkten 3824
bemüht 3823
OL@@ 3822
ere@@ 3822
kurzem 3822
applicable 3821
Landschaft 3820
heits@@ 3820
intend 3820
Day 3819
ück@@ 3819
Mittelpunkt 3818
equ@@ 3818
Strategy 3817
abkommen 3817
Auftrag 3816
Stat@@ 3816
sexual 3816
sia 3816
IF@@ 3815
experiences 3814
Zoll@@ 3813
sla@@ 3813
Far@@ 3812
Island 3812
Regierungs@@ 3812
ausgezeichneten 3812
zusätzlichen 3812
ended 3811
healthy 3811
schließt 3811
zunehmend 3811
PDF 3810
allgemein 3810
annehmen 3810
komme 3810
2. 3809
Drittländern 3809
controlled 3809
expensive 3809
fen@@ 3809
fron@@ 3809
IR@@ 3807
GB 3806
Angriff 3805
wünsche 3805
Air@@ 3804
Kind 3804
falsch 3804
multiple 3803
Dadurch 3801
billi@@ 3801
irs 3801
Haup@@ 3800
down@@ 3800
mb@@ 3800
Han@@ 3798
optimal 3796
trotzdem 3796
hom@@ 3794
höhere 3794
staatliche 3794
erscheinen 3793
taste 3793
Croatia 3792
Kredit@@ 3791
Royal 3791
parti@@ 3791
Jahres@@ 3790
Justiz 3790
sur 3790
furnished 3789
natürlichen 3787
recommendation 3787
erin 3786
Action 3785
e.@@ 3785
determine 3783
räume 3783
weltweiten 3783
lay 3782
pose 3782
chter 3781
interessiert 3781
lake 3781
by@@ 3779
anstatt 3778
lag 3778
Kin@@ 3777
wa 3777
Ohne 3775
leistungs@@ 3775
Lau@@ 3774
contemporary 3774
tter@@ 3773
.000 3772
woh@@ 3772
satellite 3771
Liber@@ 3770
edge 3769
fies 3769
prove 3767
Beweis 3765
contributions 3765
hängt 3765
passengers 3765
Westen 3764
aly@@ 3763
ligh@@ 3763
valuable 3763
Plenum 3761
Teil@@ 3760
restrictions 3757
verlangt 3755
xi@@ 3755
Applause 3754
jährigen 3754
quick 3754
Ster@@ 3753
continent 3753
erei 3753
Two 3752
amounts 3752
iti@@ 3752
mäßig 3752
officials 3752
liegenden 3751
define 3748
Dublin 3747
Klima 3747
Strukturen 3747
bild 3747
Standard@@ 3745
ered 3745
stoff@@ 3745
Luxembourg 3743
Show 3743
Suite 3743
locations 3743
wirksam 3743
Süden 3742
bridge 3742
Where 3741
miss@@ 3741
glass 3740
unmittelbar 3740
ursprünglichen 3740
zuständigen 3740
Winter 3739
Freiheiten 3738
ane 3738
conflicts 3737
í 3737
Unterschied 3736
parallel 3736
verändert 3736
Beispiele 3735
Entwicklungsländer 3734
Jean 3734
ping 3734
fli@@ 3733
length 3732
launched 3731
zurückzu@@ 3731
zulassen 3730
Lehr@@ 3729
dlichen 3729
except 3728
eye 3727
ken@@ 3727
awareness 3726
elled 3726
helps 3726
ände 3726
marquis 3725
collective 3724
Arbeitsplätzen 3723
Bulgaria 3723
Institution 3723
articles 3723
resi@@ 3723
tain 3723
wen@@ 3723
counter@@ 3722
squ@@ 3722
verabschiedet 3722
Verhandlungs@@ 3721
eds 3721
grateful 3721
lautet 3721
spanischen 3721
acy 3718
ani 3718
Hauptstadt 3717
essen@@ 3716
nten 3716
tically 3716
Check 3715
lebens@@ 3714
radio 3714
tau@@ 3714
verstanden 3714
vorzu@@ 3714
angemessene 3713
minority 3712
zt 3711
straße 3710
ón 3710
teilnehmen 3709
Kategorie 3708
vier@@ 3706
waters 3706
nachhaltigen 3705
DS@@ 3704
heraus 3704
Ges@@ 3703
coun@@ 3703
marks 3703
dige 3702
erheblich 3702
zieht 3701
Cyprus 3700
bestand 3699
Kunde 3698
destination 3696
hilft 3696
rau@@ 3696
reserve 3696
OR 3694
User 3694
IP@@ 3693
Instead 3691
Krankheiten 3691
SMEs 3691
ando 3691
diverse 3691
erer 3691
involve 3691
behalten 3689
meist 3689
profile 3689
regulatory 3689
Schule 3688
reise 3688
wirtschaftlicher 3688
Sitz 3687
centres 3687
hinter@@ 3687
offenen 3687
steel 3687
Sam@@ 3686
covers 3686
fläche 3686
zuerst 3686
Regierungskonferenz 3685
requirement 3685
aging 3684
skin 3684
web@@ 3684
Fort@@ 3683
freiheit 3683
Out@@ 3682
Versch@@ 3681
technik 3679
en- 3678
Apartment 3677
Minderheiten 3674
Ratspräsidentschaft 3674
ambi@@ 3674
führende 3674
tra 3674
ei 3673
judicial 3673
rou@@ 3673
räger 3671
üb@@ 3671
SV 3670
700 3669
tum 3669
Gleichgewicht 3668
Monetary 3668
UNO 3668
assist 3668
insi@@ 3668
profit 3668
ñ@@ 3668
eight 3667
ena 3667
stehende 3667
Ziffer 3666
vorgenommen 3666
A4 3664
preis 3664
entwurf 3663
ka@@ 3663
Bau 3662
ush 3662
gsten 3661
nam@@ 3661
recommended 3661
zugunsten 3661
relatively 3660
removed 3660
Aqu@@ 3659
Charta 3659
USD 3657
Pla@@ 3656
Pool 3656
mil@@ 3656
Nein 3655
serviert 3655
amerikanische 3654
OT@@ 3653
moved 3653
gegen@@ 3652
producing 3652
Format 3651
gener 3651
Kombination 3650
cheap 3650
emb@@ 3650
websites 3650
Bahnhof 3649
tho@@ 3649
ann 3648
grün@@ 3648
GN@@ 3647
denk@@ 3647
schafft 3647
ici@@ 3646
reich 3646
20. 3644
facilitate 3644
Open@@ 3642
sinnvoll 3642
Britain 3641
Flash 3641
depends 3641
dos 3641
dam@@ 3640
Amendments 3639
buchen 3639
customs 3638
kostet 3638
realistic 3638
Gl@@ 3637
zuge@@ 3637
ausgezeichnete 3636
berechtigt 3636
heavy 3636
willkommen 3636
ny 3633
sold 3629
dates 3628
obtained 3628
unk@@ 3628
digung 3627
Question 3626
Drittens 3625
stor@@ 3625
Farbe 3624
expertise 3624
flü@@ 3624
kleiner 3623
Sho@@ 3621
durchzuführen 3621
ethnic 3621
weist 3621
Techn@@ 3620
confirm 3619
identify 3619
iner 3619
phrase 3619
Sach@@ 3617
hen@@ 3617
besitzen 3616
Gri@@ 3614
bedeut@@ 3614
elling 3613
Element 3612
Wien 3612
Holz@@ 3611
Plaza 3611
Vorschlags 3611
increases 3611
ony 3611
Steuern 3610
Test 3610
worse 3610
Kapital@@ 3609
KMU 3608
Video@@ 3607
largely 3607
ministers 3607
Sel@@ 3606
preparation 3606
Camp@@ 3605
Fern@@ 3605
ßt 3605
Winter@@ 3604
GDP 3603
ared 3603
pped 3603
schlägt 3603
tierten 3603
welfare 3602
Spiele 3601
asing 3601
eröffnet 3601
helped 3601
objects 3601
rein 3601
Nachfrage 3600
occasion 3600
stellten 3600
gei@@ 3599
ghts 3599
hervorragende 3599
schicken 3599
Reform@@ 3597
preise 3597
Back@@ 3596
Off@@ 3596
Zugriff 3596
qualität 3596
Außenpolitik 3595
fiziert 3595
120 3594
sian 3594
terrorist 3593
trafficking 3593
Projekt@@ 3592
los@@ 3592
offen@@ 3592
understood 3592
е 3592
ash 3591
strategies 3591
Pin@@ 3590
zentralen 3590
glad 3589
Industrie@@ 3588
effectiveness 3588
log 3588
reject 3588
Experten 3587
Küste 3587
Post 3587
named 3587
weisung 3587
Vereinbarungen 3586
inzwischen 3585
president 3584
10.@@ 3583
Gener@@ 3583
Verringerung 3583
LO@@ 3581
Tourismus 3581
water@@ 3581
Gentoo 3580
Prinzipien 3580
Tan@@ 3580
exclusively 3580
ney 3580
connections 3579
eyes 3579
schei@@ 3579
verursacht 3579
Politiken 3578
derartige 3578
precise 3578
committees 3577
klaren 3577
Ob 3576
ello 3576
lim@@ 3576
notwendige 3576
AC 3575
bilateral 3575
impression 3575
westlichen 3573
operational 3572
Ausführungen 3571
dritte 3571
Berufs@@ 3570
Don@@ 3570
issued 3570
tlicher 3570
Anlage 3569
ausgesetzt 3569
echten 3569
i.e. 3569
Real 3568
golf 3568
dischen 3567
facts 3567
Bucht 3566
Materialien 3566
Est@@ 3565
proved 3565
zugänglich 3565
q 3564
teilt 3564
Israeli 3562
Safety 3562
plat@@ 3562
1000 3561
Kann 3561
Verteidigung 3561
exceptional 3561
friend 3561
lauf@@ 3561
yo@@ 3561
zunehmen 3561
brief 3560
stic 3559
vollständige 3559
entwickelten 3558
ständige 3558
Karten 3557
Verbot 3557
pping 3557
bequem 3556
nung 3556
schön 3556
Frei@@ 3555
proof 3555
remaining 3555
declaration 3554
vorlegen 3554
meat 3553
Europol 3551
let@@ 3551
Hi@@ 3550
bestätigen 3550
conc@@ 3550
erlauben 3550
Angst 3549
Bemerkungen 3549
Konflikt 3549
Verbraucher@@ 3549
demo@@ 3549
Straßen@@ 3548
mus@@ 3548
err@@ 3547
loc@@ 3547
soli@@ 3547
system@@ 3547
eigenes 3546
Funds 3545
gas@@ 3544
sich@@ 3544
verringern 3544
1991 3543
Kooperation 3543
dokum@@ 3542
entdecken 3542
pollution 3542
ziele 3542
Gästen 3541
deb@@ 3541
ausschuß 3539
ables 3538
submit 3538
ED 3536
delighted 3535
hoher 3535
read@@ 3535
Straf@@ 3534
formen 3534
funktionieren 3534
Werk 3533
convenient 3533
Very 3532
ecken 3532
para 3531
ual 3531
produkte 3530
ala 3529
charges 3529
verleihen 3529
11. 3528
Munich 3528
Vit@@ 3528
seeing 3528
Shop 3527
Zimmern 3527
Procedure 3526
Blo@@ 3525
atoren 3525
subsidies 3525
Bes@@ 3524
Einbeziehung 3524
View 3524
Schluss 3522
cer@@ 3522
hum@@ 3522
Nov@@ 3521
Rezeption 3521
e.g. 3520
pfen 3520
enter@@ 3519
Enjoy 3518
Mitgliedschaft 3518
Mod@@ 3518
Poker 3518
ultimately 3518
Report 3516
basiert 3516
Alternative 3514
Telefon 3514
Vil@@ 3514
rie@@ 3514
topic 3514
messen 3513
Maß 3512
Rotary 3512
stance 3512
anzeigen 3511
ruhigen 3510
Immobilien@@ 3509
Kauf@@ 3509
Signal 3509
rup@@ 3509
volume 3509
profession@@ 3508
ê@@ 3508
Zi@@ 3507
н@@ 3507
moral 3506
Pres@@ 3504
minorities 3504
ular 3504
visa 3503
Tisch 3502
S.@@ 3501
Verkauf 3501
derung 3501
gerichtet 3501
Ausnahme 3500
04 3499
EB@@ 3499
fizierung 3499
Fenster 3498
Gold 3498
Mö@@ 3498
chain 3498
cket 3498
spring 3498
mö@@ 3497
Polish 3496
Vision 3496
wir@@ 3496
Raum@@ 3495
occup@@ 3495
1989 3494
Austausch 3494
Mehr@@ 3494
Technology 3494
ausgesprochen 3494
geprüft 3494
vieler 3494
Konsens 3492
derer 3492
Boden 3491
begrüßt 3491
password 3491
cent 3490
seh@@ 3489
gespielt 3488
gungen 3488
units 3488
Gerichtshof 3487
answers 3487
parents 3487
bemühen 3486
command 3486
deals 3486
entstanden 3486
tes@@ 3486
COM 3485
Des 3485
Einwanderung 3485
handling 3485
3,@@ 3484
creative 3484
tackle 3484
demonstrate 3483
Gebrauch 3482
Stadtzentrum 3482
avi@@ 3482
¤ 3482
Drogen@@ 3481
gearbeitet 3481
Handeln 3480
geltenden 3480
justified 3479
karten 3479
institutionellen 3478
imposed 3477
Dem 3476
creates 3476
ress 3476
Miss@@ 3475
sodass 3475
ös@@ 3475
Faktoren 3474
watch 3474
früheren 3473
Pact 3471
load 3471
Partnern 3470
corruption 3470
installiert 3470
western 3470
Fri@@ 3469
Regi@@ 3469
ame@@ 3469
Wander@@ 3468
ferner 3468
Page 3467
globalisation 3467
kt@@ 3467
maintained 3467
Besorgnis 3466
Copenhagen 3466
Framework 3466
einig 3466
noted 3466
tou@@ 3466
verehrte 3466
scht 3464
2012 3463
Emissionen 3462
Weiter@@ 3462
sorgt 3462
tigte 3461
ain 3460
mt 3460
з@@ 3460
ater@@ 3458
Einkaufs@@ 3457
Whether 3457
statistics 3457
abo@@ 3456
beschränkt 3456
Mobilität 3455
starten 3455
wann 3455
Hohen 3454
Sorgen 3454
Gespräche 3453
engineering 3453
Fle@@ 3452
äußern 3452
contracts 3451
fü@@ 3451
leiten 3451
schlag 3451
David 3450
conditioning 3450
leaving 3450
bre 3449
chron@@ 3449
abroad 3448
inf@@ 3448
kenn@@ 3448
runs 3448
solange 3448
comple@@ 3447
gg@@ 3447
anlagen 3446
blog 3446
organisiert 3445
residence 3445
separ@@ 3445
them@@ 3445
eres 3443
fur@@ 3442
pieces 3442
communications 3441
streets 3441
lots 3440
somewhat 3440
ills 3439
Netz@@ 3438
Person@@ 3438
Welcome 3438
einfachen 3438
offices 3438
rechtliche 3438
Tru@@ 3437
pla@@ 3437
52 3436
Executive 3435
speaker 3435
universal 3434
Portuguese 3433
beträgt 3433
ano@@ 3432
lichkeiten 3432
charming 3431
passiert 3431
Beratung 3430
divided 3429
functioning 3429
asser@@ 3428
bereiche 3428
physi@@ 3428
satisfied 3428
Airbus 3427
Sei@@ 3427
crimes 3427
dol@@ 3427
einheitlichen 3427
gestellten 3427
proud 3426
sitz 3426
fehlt 3425
ré@@ 3425
etzen 3424
spaces 3424
subsidiarity 3424
val 3424
credibility 3423
Architektur 3422
Wird 3422
aden 3422
aktiven 3422
Massen@@ 3421
demonstrated 3421
emergency 3421
Arbeitsmarkt 3420
IB@@ 3420
rising 3420
fran@@ 3419
Tatsächlich 3417
reserves 3417
urr@@ 3417
Nachrichten 3416
Zielen 3416
aussprechen 3415
messages 3415
dru@@ 3413
BSE 3412
Datenbank 3412
Nutz@@ 3412
will@@ 3412
hundreds 3411
tur 3411
Projekten 3410
audio 3410
aux 3410
entlang 3410
ous@@ 3410
priv@@ 3410
wach@@ 3410
immigrants 3409
Norden 3408
Vorgehen 3406
steller 3406
strict 3406
wollten 3406
Canada 3405
Take 3405
höchsten 3405
Aktion 3404
wie@@ 3403
dest@@ 3402
TO 3401
durchführen 3401
isation 3401
AP 3400
Führungs@@ 3400
Under 3398
ked 3397
spa 3397
def@@ 3396
â@@ 3396
kri@@ 3395
ries 3395
Fernseh@@ 3394
Fähigkeiten 3394
zig 3394
vast 3393
Künstler 3391
stände 3391
tier@@ 3390
couple 3389
sicht@@ 3389
Ham@@ 3387
gezwungen 3387
respected 3387
serv@@ 3387
Websites 3386
welchem 3386
adopting 3385
AND 3384
B5 3384
Sand@@ 3383
Eltern 3382
Marktes 3381
unge@@ 3381
GNU 3380
characteristics 3380
organizations 3380
perform 3380
Gesellschaften 3379
concluded 3379
Deswegen 3378
output 3378
unmöglich 3378
graphy 3377
studi@@ 3377
vorschriften 3377
ute 3376
treat 3374
aussch@@ 3373
Doppel@@ 3372
Maastricht 3372
verhindert 3372
jenen 3371
mitten 3371
27@@ 3369
bezahlen 3369
Beziehung 3368
Fischer 3368
trees 3368
ía 3368
vertre@@ 3367
master 3366
Beiträge 3365
IC 3365
maintaining 3364
Ausführung 3363
Will 3363
focused 3363
legitimate 3363
51 3362
Hil@@ 3362
Rou@@ 3362
Wissenschaft 3362
quali@@ 3362
Zentralbank 3361
Zwischen@@ 3361
launch 3361
Mensch 3360
Over 3359
blue 3359
Werbung 3358
definiert 3358
enswert 3358
involves 3358
ausgeschlossen 3357
erleichtern 3357
EU@@ 3356
Spe@@ 3356
Arab 3355
systemen 3355
Nos 3354
aufnehmen 3354
noise 3354
schau@@ 3354
kurze 3353
cycle 3352
definitely 3352
boat 3351
demanding 3351
greif@@ 3351
verurteilt 3351
öffentlich 3351
Special 3350
Gestaltung 3349
Umgang 3349
ami 3348
Structural 3347
careful 3347
wiederholen 3347
Balkans 3346
Rich@@ 3346
Schwerpunkt 3346
Straßen 3346
plenary 3346
pour 3346
Asyl@@ 3345
automatic 3345
urs 3345
micro@@ 3344
ativer 3343
regul@@ 3342
info 3341
lle 3341
intellectual 3340
sische 3340
Fun@@ 3338
Perhaps 3337
chtung 3337
wachsen 3337
Abschnitt 3336
Schlussfolgerungen 3336
zäh@@ 3336
Programmen 3335
dorf 3335
regularly 3334
Bemerkung 3333
Identi@@ 3333
ble@@ 3333
wasser 3333
Rechtsgrundlage 3332
zahl@@ 3332
Nachricht 3331
ards 3330
Luft 3329
indicated 3329
sern 3329
temperature 3329
Bou@@ 3328
erweitert 3328
Live 3326
übernimmt 3325
ises 3324
organisationen 3324
spoken 3324
Beschluss 3323
Sicher@@ 3323
conducted 3323
schnelle 3323
sichere 3322
Sc@@ 3321
WC 3321
maritime 3321
grow 3320
leu@@ 3320
sn@@ 3320
Tom@@ 3319
formal 3319
overcome 3319
Rat@@ 3318
Übersetzung 3318
Erzeugnisse 3317
erinnert 3317
Protection 3316
abgestimmt 3316
best@@ 3316
electricity 3316
höher 3315
rü@@ 3314
heritage 3313
holen 3312
zieren 3312
Their 3311
Netz 3310
kat@@ 3310
Essen 3309
Identität 3309
hit 3309
manager 3309
unde 3309
Baltic 3308
constitutional 3308
erhältlich 3308
verdient 3308
bedroom 3306
illi@@ 3306
nahmen 3306
nunmehr 3305
signs 3305
Dort 3304
argument 3304
eingesch@@ 3304
journey 3304
ads 3303
ania 3302
bedrooms 3302
füllen 3302
servi@@ 3302
tierte 3302
Ware 3301
ening 3301
musste 3301
Not@@ 3300
audi@@ 3300
iso@@ 3300
Chancen 3297
Serie 3297
blood 3297
Pop@@ 3296
eten 3295
86 3293
mem@@ 3293
schönsten 3293
stro@@ 3293
zusammenarbeiten 3293
entscheidende 3292
weg@@ 3290
Set 3287
Sozi@@ 3287
ł@@ 3286
außerordentlich 3285
citizen 3285
roads 3285
sle@@ 3285
gewährt 3284
transition 3284
EP@@ 3283
Englisch 3283
competent 3283
SA 3282
follows 3282
reaching 3282
sorgfältig 3282
verändern 3282
Spar@@ 3281
bung 3280
leben@@ 3280
21. 3279
3. 3279
Nicht@@ 3279
breiten 3279
eingereicht 3279
jegliche 3279
Lag@@ 3278
Termin@@ 3278
ela 3278
encouraging 3278
Roman 3277
Vorsitz 3276
UT@@ 3275
angegebenen 3275
anner 3275
faster 3275
verschiedener 3275
är 3275
Optionen 3272
Gemein@@ 3271
ace 3271
sensible 3271
proposes 3270
Verbindungen 3269
actively 3268
ete 3268
Cat@@ 3267
declared 3267
BIP 3266
Organ@@ 3266
letztlich 3266
ausgeführt 3265
produziert 3265
weiten 3265
tickets 3264
Mach@@ 3262
grant 3262
Dorf 3261
Revolution 3261
contacts 3261
discovered 3261
Kol@@ 3260
ances 3260
stronger 3260
kun@@ 3259
Kontrollen 3258
Staat@@ 3258
displayed 3258
überzeugen 3258
iten 3257
--@@ 3256
heim 3256
taxation 3255
ongoing 3254
mas@@ 3253
Alter 3252
Eli@@ 3252
occasions 3251
Morgen 3250
familiar 3250
Garantie 3248
Marina 3248
übrigens 3248
proposing 3247
wirkt 3246
Stand@@ 3245
bestimmen 3245
kurzen 3243
prozesses 3243
vorher 3242
Brazil 3241
Untersuchungen 3241
strategischen 3241
iting 3240
Neue 3239
Given 3238
pun@@ 3238
Hy@@ 3237
Sektoren 3237
walls 3236
DA@@ 3235
addi@@ 3235
cell@@ 3235
theit 3235
Leistungs@@ 3234
Zentral@@ 3234
Ausgangspunkt 3233
afternoon 3233
gespeichert 3233
top@@ 3233
Washington 3232
cies 3232
cro@@ 3232
dishes 3232
ennen 3232
chinesischen 3231
tende 3231
Java 3230
Kommunikations@@ 3230
verstärken 3230
heutige 3229
spann@@ 3228
Ausstellung 3227
doors 3226
russischen 3226
sprachen 3226
Währungs@@ 3225
Yes 3225
Fac@@ 3224
Thirdly 3224
correctly 3224
erhebliche 3224
extrem 3224
erneu@@ 3223
Bru@@ 3222
Hü@@ 3222
Asien 3220
Oper@@ 3220
assume 3220
enthalt 3220
München 3218
cel@@ 3218
furniture 3218
organized 3218
anwesend 3216
cold 3216
investors 3216
nahm 3216
possibly 3216
ticket 3216
Hamas 3215
eckt 3214
eiten 3214
meant 3214
Mexico 3213
fein@@ 3213
impressive 3213
zeichn@@ 3213
Veranstaltung 3212
ix 3212
04@@ 3211
Robert 3211
verantwortungs@@ 3211
George 3210
anbelangt 3210
invite 3209
Get 3208
Zusatz@@ 3208
bestimmter 3208
ett 3208
ome 3208
Tel@@ 3207
interessante 3207
neuesten 3207
Foto 3206
Kam@@ 3206
Kollegin 3206
Food 3205
enzen 3205
scheinen 3205
ès 3204
finished 3203
zun@@ 3203
Kräfte 3202
frequently 3200
gehende 3200
ele 3199
Männern 3198
klein@@ 3198
Black 3197
compatible 3196
kamen 3196
pos@@ 3196
blu@@ 3195
läßt 3195
programms 3195
occur 3194
owners 3194
Putin 3193
prefer 3193
spon@@ 3193
Jedes 3192
Malta 3192
feed 3191
Beschlüsse 3190
beschäftigen 3190
Katastrophe 3189
na@@ 3189
Hafen 3188
standen 3188
covering 3186
freundliche 3186
fördert 3186
tours 3186
accompanied 3185
sucht 3185
MA@@ 3184
kar@@ 3184
ni 3183
pot 3183
q@@ 3183
showing 3183
beruht 3182
pen 3182
direkten 3181
gallery 3181
Schl@@ 3180
Get@@ 3179
Wohl@@ 3179
smo@@ 3179
CE 3178
Kamera 3178
Kosten@@ 3178
Planung 3178
School 3178
strah@@ 3178
Belgium 3177
bekämpfung 3177
lists 3177
Bestellung 3176
Che@@ 3176
Wein 3176
ader 3175
sight 3175
constitution 3174
enth@@ 3174
interpretation 3174
jener 3174
plays 3174
schem 3174
dische 3173
maschinen 3173
Vorstellung 3172
höheren 3172
head@@ 3171
Bedrohung 3170
beigetragen 3170
dinner 3170
Life 3169
impose 3166
inclusion 3166
Marketing 3164
handel 3164
set@@ 3164
vorhandenen 3164
Second 3163
klar@@ 3163
parks 3163
entscheidender 3162
imm@@ 3162
effektiv 3160
ст@@ 3160
apart 3159
54 3158
DA 3158
Verbreitung 3158
Ul@@ 3157
beteiligen 3157
dependent 3157
größer 3157
Zwecke 3156
kno@@ 3156
bound 3155
0s 3154
LE 3153
Komm@@ 3152
Tip 3152
ased 3152
voran@@ 3152
werten 3152
Schw@@ 3151
bottom 3151
verbringen 3151
Bil@@ 3150
stream 3150
Maschinen 3149
belieb@@ 3149
deckt 3149
Glaubwürdigkeit 3148
ele@@ 3148
properties 3148
satisfaction 3148
Gaza 3147
Blog 3146
St 3146
Veröffentlichung 3146
bon@@ 3146
collaboration 3146
mali@@ 3145
returned 3145
Kapitel 3144
behaviour 3144
decken 3144
starts 3144
Alles 3143
Hinter@@ 3143
betreffend 3143
.org 3141
kehr@@ 3141
präsentiert 3141
earth 3139
eingehalten 3139
examine 3139
psych@@ 3139
Hungary 3138
Stück 3138
ession 3137
p.m. 3137
Führ@@ 3136
Taiwan 3136
d.h. 3136
schauen 3136
unverzüglich 3136
Anbieter 3134
aria 3134
bestehende 3134
gaben 3134
Japanese 3133
Ausgabe 3132
River 3132
entertainment 3132
freedoms 3132
lab@@ 3131
Geheim@@ 3130
Haftung 3130
Rest 3130
died 3130
maschine 3130
Mikro@@ 3129
beraten 3129
ov 3129
sprach 3129
determination 3128
leisure 3127
Dek@@ 3126
kürz@@ 3126
Ambiente 3125
Women 3125
ó 3125
Klimaanlage 3124
weather 3124
decisive 3123
dürfte 3123
father 3123
joined 3123
preparing 3122
Mur@@ 3121
colour 3121
vorstellen 3121
genügend 3120
updated 3120
vulnerable 3120
Einstellungen 3119
dans 3119
HT@@ 3118
doesn 3118
cast 3116
einbezogen 3116
firms 3116
viel@@ 3115
Zivilgesellschaft 3114
carbon 3114
irgend@@ 3114
laut 3114
yers 3114
Ansichten 3113
ENT@@ 3113
Transport@@ 3113
schlecht 3113
tively 3113
Radio 3112
Rein@@ 3111
Stein@@ 3111
solches 3111
unds 3111
uting 3111
Ah@@ 3110
nevertheless 3110
partly 3110
preis@@ 3110
fee 3109
ky 3109
looked 3109
smoking 3108
usses 3108
gehenden 3107
copyright 3106
duc@@ 3106
halb 3106
markt@@ 3106
Prop@@ 3105
Gewicht 3104
destruction 3104
Genehmigung 3103
PRO@@ 3102
owner 3102
umgeben 3102
Sollte 3101
britische 3101
verhalten 3101
Datenschutz@@ 3100
Kontext 3100
Thursday 3100
glob@@ 3100
gebiete 3099
ungefähr 3099
Budgets 3098
chemical 3097
entsteht 3097
Dat@@ 3096
Messe 3096
aller@@ 3096
castle 3096
lebt 3096
Bereitstellung 3095
Old 3094
Pau@@ 3094
considering 3094
woman 3094
Konsequenzen 3093
rapidly 3093
Den@@ 3092
Umfeld 3092
abuse 3092
sozialer 3092
soci@@ 3091
Überlegungen 3091
Förder@@ 3090
Studien 3090
fantastic 3089
proceed 3089
72 3088
inflation 3088
voluntary 3088
hängen 3087
Kopf 3085
applying 3085
reiche 3085
Selbstverständlich 3084
orial 3084
reform@@ 3084
reported 3084
Bon@@ 3083
Entlastung 3083
nummer 3083
Auge 3082
Ci@@ 3082
eignet 3081
gh 3081
reifen 3081
Agriculture 3080
but@@ 3080
versichern 3080
visited 3080
Inv@@ 3079
jahr@@ 3079
tobacco 3079
grenz@@ 3078
tori@@ 3078
Mangel 3077
Telefon@@ 3077
Ele@@ 3076
Friday 3076
acted 3076
lob@@ 3076
reduzieren 3076
züge 3076
depending 3075
spec@@ 3075
Band 3074
Studenten 3074
substance 3074
Buchung 3073
Krankheit 3073
Lö@@ 3073
raw 3073
stück 3073
Individu@@ 3072
Sü@@ 3072
bemerk@@ 3072
gold 3072
vorbereitet 3072
regarded 3071
scheme 3071
Staates 3070
hil@@ 3070
Dru@@ 3069
frag@@ 3069
OM@@ 3068
cuts 3068
presents 3068
Mac 3067
Well 3067
drug 3066
settings 3066
Express 3064
Front 3064
Gewährleistung 3064
Gründung 3063
Jede 3062
avec 3062
erlebt 3062
stellungs@@ 3062
Northern 3061
desired 3061
mol@@ 3061
wiederholt 3061
settlement 3060
kal@@ 3059
C5 3058
Gegend 3058
Noch 3058
bern 3058
suffer 3058
Erholung 3057
Früh@@ 3057
heben 3057
verkaufen 3057
zieh@@ 3056
Description 3055
News 3055
ordin@@ 3055
outdoor 3055
verteidigen 3054
Polizei 3053
cutting 3053
surroundings 3053
Act 3051
druck 3051
herrscht 3051
multi 3051
verkehrs 3051
Gerichte 3050
Los 3050
impor@@ 3050
Schlüssel 3049
Wünsche 3049
grundsätzlich 3049
inner 3049
nahezu 3048
turen 3048
Ide@@ 3047
ros 3047
Insbesondere 3046
dich 3045
gestaltet 3044
Music 3042
Assembly 3041
Legal 3040
gangs 3040
west 3040
J 3039
harmonisation 3039
identified 3039
unity 3039
AV@@ 3038
Wohlstand 3038
dining 3038
east 3038
menschliche 3037
OF 3035
index 3035
Ungarn 3034
islands 3033
oms 3033
NI 3032
arguments 3032
arrive 3032
inhabitants 3032
EG@@ 3031
lokale 3031
wonder 3031
53 3030
Praktiken 3030
Skype 3030
ault 3030
ending 3030
puts 3030
Bulgarien 3029
Gesam@@ 3029
ming 3029
begrenzt 3028
liberal 3028
ly@@ 3028
duties 3027
Strasbourg 3026
bereitet 3026
finanziert 3026
tief@@ 3026
Einheit 3025
Geräte 3025
VAT 3025
Bahn 3024
Cli@@ 3024
drücken 3024
fügt 3022
northern 3022
passenger 3022
direkte 3021
newly 3021
staat 3021
transportation 3021
160 3020
A3@@ 3020
oll 3020
CS 3019
eff@@ 3019
lern 3019
stolz 3019
assets 3018
Acc@@ 3017
geboten 3017
Cle@@ 3016
Darum 3016
Hungarian 3016
Port 3016
count 3016
elsewhere 3016
license 3016
shares 3016
abstimmen 3015
belie@@ 3015
satisfactory 3014
Selbst 3013
letztendlich 3013
main@@ 3013
Analy@@ 3012
Sommer@@ 3012
ado@@ 3012
appointed 3012
contrast 3012
ska 3012
ú@@ 3012
Korruption 3011
excessive 3011
farm 3011
flat 3011
li 3011
machte 3011
widely 3011
Without 3010
match 3010
92 3009
classic 3009
zahlung 3009
Bewer@@ 3008
wär@@ 3008
isi@@ 3007
lied 3007
referendum 3007
tak@@ 3007
68 3006
Positionen 3006
fleet 3006
nieder@@ 3006
specified 3006
vorzulegen 3006
Zuständigkeit 3005
Vorhaben 3004
cooperate 3004
deficit 3004
proc@@ 3004
Mich@@ 3003
pack@@ 3003
eastern 3002
gewissen 3002
liefert 3002
ques 3002
unterstreichen 3002
AD 3001
Kommissions@@ 3001
sugar 3001
foundation 3000
Rahmen@@ 2999
Rom 2999
atten@@ 2999
gebieten 2999
Lim@@ 2997
get@@ 2996
Sonne 2995
wahlen 2995
ütz@@ 2994
voraus@@ 2993
wissenschaftliche 2993
negotiating 2992
with@@ 2992
Gegenstand 2991
Power 2991
Kroatien 2990
teams 2990
Sicherung 2989
ells 2989
losses 2989
stored 2989
Las 2988
geboren 2988
ites 2988
56 2987
gemeinschaftlichen 2987
lers 2987
zeugen 2987
Gerechtigkeit 2986
PO@@ 2985
organisieren 2985
IV 2984
Organe 2984
united 2984
Entscheidungs@@ 2983
Kas@@ 2983
cen@@ 2983
Sitz@@ 2982
mod@@ 2982
sek@@ 2982
12.@@ 2981
Geschäfte 2981
Quar@@ 2981
Thomas 2981
bike 2981
educational 2981
entlich 2981
zustellen 2981
fei@@ 2980
kol@@ 2980
spreche 2980
Mad@@ 2979
PR@@ 2979
Soviet 2979
ac 2979
gesellschaften 2979
resistance 2979
hren 2978
illegalen 2978
politically 2978
allocated 2977
decorated 2977
Fü@@ 2976
Top 2976
stil@@ 2976
vermitteln 2976
Ab 2975
drink 2975
Wind@@ 2974
Waren@@ 2973
künftige 2972
ž@@ 2972
ency 2971
ließ 2971
Beitritts@@ 2970
exception 2970
Sollten 2968
Ther@@ 2968
motor 2968
oc@@ 2967
solely 2967
Mut 2966
absence 2966
einfacher 2966
gungs@@ 2966
ita 2966
Auditors 2965
surely 2965
transactions 2965
betrieben 2964
complicated 2964
expert 2963
invest 2963
nungs@@ 2963
präsentieren 2963
renovated 2963
sauna 2962
Fru@@ 2961
King 2961
Klasse 2961
ebene 2961
expansion 2961
französische 2961
entschlossen 2960
exports 2960
mach@@ 2960
Sauna 2959
asses 2959
formed 2959
gewi@@ 2959
ora 2959
seat 2959
Hall 2958
a. 2958
emerging 2958
gio 2958
Award 2957
Sit@@ 2957
bislang 2957
extraordinary 2957
mächti@@ 2957
provider 2957
speichern 2957
usual 2957
prosperity 2956
techniques 2956
welt@@ 2956
Komponenten 2955
generated 2955
iler 2955
sending 2955
aged 2954
Jan@@ 2952
Gefahren 2951
Lebensmittel 2951
Objek@@ 2951
forthcoming 2951
General@@ 2950
Zwei 2950
plätze 2950
tran@@ 2950
adults 2949
performed 2949
toler@@ 2949
denden 2947
feh@@ 2947
hall 2947
investieren 2947
pursue 2947
versorgung 2946
cked 2945
gerich@@ 2945
Browser 2944
Reduzierung 2944
ktionen 2944
personnel 2944
theme 2944
59 2943
Sy@@ 2943
zuständig 2943
Prague 2941
corresponding 2941
milk 2941
oured 2941
vorgeschlagene 2941
ère 2941
Mü@@ 2940
Stability 2940
ais 2940
difficulty 2940
ersetzt 2940
fashion 2940
großem 2940
Verletzung 2939
channels 2939
einzigartige 2939
konfrontiert 2939
schung 2939
Ablehnung 2938
EX@@ 2938
führten 2938
sers 2938
Budget 2937
drivers 2936
Tar@@ 2935
pum@@ 2935
© 2935
AKP 2933
Volksgesundheit 2932
clubs 2932
fulfil 2932
Besonders 2930
Kilometer 2930
Rech@@ 2930
Wol@@ 2929
Redner 2928
ald 2928
jün@@ 2928
ys@@ 2928
Benutzer@@ 2927
freut 2927
AIDS 2926
Gleichstellung 2925
ill 2925
pt 2925
Freizügigkeit 2922
frame 2922
sicheren 2922
Church 2921
aufs 2921
lik@@ 2921
überprüft 2921
2.0 2920
ag 2920
einzusetzen 2920
enhance 2920
Fein@@ 2919
schu@@ 2919
Sim@@ 2918
enabled 2918
stieg 2918
wines 2918
channel 2917
documentation 2917
maxim@@ 2917
tin@@ 2916
informationen 2915
lösung 2915
respon@@ 2915
Stimm@@ 2914
cip@@ 2914
directory 2914
esch@@ 2914
consent 2913
imports 2913
institutionelle 2913
Pet@@ 2912
farming 2912
remote 2912
Betrag 2911
Socialist 2911
Verfassungs@@ 2911
Medien@@ 2910
emen 2910
gkeiten 2910
graph@@ 2910
vorgesehenen 2910
Exchange 2909
mostly 2909
secret 2909
counter 2908
din 2908
gewonnen 2908
Schulen 2907
patent 2907
Übergangs@@ 2907
Freunden 2906
Haushaltsplan 2906
hardware 2906
lauf 2906
Flo@@ 2905
Werke 2905
sharing 2905
Befugnisse 2904
recht@@ 2904
representation 2904
verst@@ 2904
Islam 2903
SE 2903
housing 2903
mid 2903
beantworten 2902
ect 2902
Stimmen 2900
Update 2899
cable 2899
hervor 2899
EP 2898
Network 2898
ordinary 2898
solid 2898
succeed 2898
dauer 2897
exciting 2897
Plus 2896
unterzeichnet 2896
youth 2896
Mitarbeitern 2895
Situationen 2895
industri@@ 2894
installieren 2894
lasting 2894
Image 2893
Je 2893
alization 2893
revision 2893
Bahn@@ 2892
suggestions 2892
Preisen 2891
Wir@@ 2891
mus 2891
containing 2890
explore 2890
Badezimmer 2889
Widerspruch 2889
configuration 2889
courts 2889
division 2889
olo 2889
Kab@@ 2888
Kulturen 2888
army 2888
erfolgreiche 2888
offiziellen 2888
depend 2887
egal 2887
früh@@ 2887
lad@@ 2887
percent 2886
significance 2886
labelling 2885
mess@@ 2885
Serbia 2884
safeguard 2884
einrichtungen 2883
Vorausschau 2882
haf@@ 2882
Les@@ 2880
NGOs 2880
Sek@@ 2880
zukünftigen 2880
· 2880
Adobe 2879
Power@@ 2879
Webseiten 2879
angesehen 2879
necessarily 2879
viol@@ 2879
Aktionsplan 2878
Al 2878
spe@@ 2878
sse 2878
behaupten 2877
olog@@ 2877
verkauft 2877
Binnenmarktes 2876
buch@@ 2876
Atlantic 2875
Basi@@ 2875
Stoffe 2875
constitute 2875
famili@@ 2875
itali@@ 2875
quarter 2875
Energien 2874
Tab@@ 2874
arischen 2874
igung 2874
illustr@@ 2874
library 2874
realise 2874
stab@@ 2874
wand@@ 2874
Г 2874
Anlass 2873
UC@@ 2873
dankbar 2873
firmly 2873
greatly 2873
herr@@ 2873
lessons 2873
religion 2873
Congress 2872
career 2872
wan@@ 2872
Brasilien 2871
Eisenbahn@@ 2871
Schlafzimmer 2871
internen 2871
tourists 2871
battle 2870
burger 2870
flights 2870
lic 2870
promised 2870
Rund@@ 2869
bedeutende 2868
carrying 2868
dignity 2868
Distribution 2867
fers 2867
mother 2867
roman@@ 2867
ye@@ 2867
Or 2866
spoke 2866
wirksame 2866
Brand@@ 2865
Prozesses 2865
award 2865
preventing 2865
18. 2864
Following 2864
din@@ 2864
metal 2864
Ehr@@ 2863
gestattet 2863
modell 2863
Grad 2862
äm@@ 2862
Ausstattung 2861
Belgien 2861
Cy@@ 2860
bergen 2860
diplom@@ 2860
flows 2860
mitteilen 2860
Dr@@ 2859
Gest@@ 2858
Puerto 2858
breit@@ 2858
fundament@@ 2858
printing 2858
wed 2858
Mobile 2857
Pass@@ 2857
hervorgehoben 2857
replaced 2857
aling 2856
serving 2856
Erfüllung 2855
allzu 2855
exit 2855
Deutschen 2854
EZB 2854
Gericht 2854
anschließen 2854
suppliers 2854
Berich@@ 2853
Gol@@ 2852
gnis 2852
verbinden 2852
Erstellung 2851
Städten 2851
nec@@ 2851
MB 2850
Single 2850
vorschlag 2850
Oder 2849
niveau 2849
Meines 2848
enge 2848
reservations 2848
Vorlage 2847
fon@@ 2847
societies 2847
Dauer 2846
festival 2846
mischen 2846
slo@@ 2846
album 2845
disasters 2845
erfolgreichen 2845
import 2845
änden 2845
App@@ 2844
vorge@@ 2844
steuer@@ 2843
buch 2842
effizient 2842
endorse 2842
enger 2842
grenzen 2842
wirtschaftlich 2842
1st 2841
mi 2841
proceedings 2841
überein 2840
Firmen@@ 2839
balcony 2839
Mrd. 2838
dende 2838
Interessen@@ 2837
disabled 2837
setz@@ 2837
Eigentum 2836
obliged 2836
sierten 2836
ean 2835
subjects 2835
а 2835
Extre@@ 2834
dul@@ 2834
fügen 2834
nights 2834
pression 2834
cted 2833
utz@@ 2833
visiting 2833
Verb@@ 2832
beobachten 2832
heating 2832
Wirk@@ 2831
raising 2829
stars 2829
vorher@@ 2829
Within 2828
Wo 2828
dest 2828
digt 2828
boot 2826
savings 2826
verwende 2826
Übernachtung 2826
Volkes 2825
wirtschafts@@ 2825
any@@ 2824
artist 2824
suites 2824
towns 2824
ausgerichtet 2822
ishing 2822
Halb@@ 2821
layer 2821
58 2820
Kir@@ 2820
Sun@@ 2820
individuellen 2820
kg 2820
Dusche 2819
Ret@@ 2819
angegeben 2819
clu@@ 2819
Flüchtlinge 2818
wohnen 2818
Budapest 2817
MySQL 2817
atischen 2817
Nachbarn 2816
bereichen 2816
gering@@ 2816
militärischen 2816
perfekt 2816
zahl 2816
Kurs 2815
Trotzdem 2815
chern 2815
ico 2815
Prof@@ 2814
auftreten 2814
legally 2814
nachdrücklich 2814
5. 2813
attempts 2813
exclusion 2813
Tätigkeiten 2812
ernsthaft 2812
ersetzen 2812
introducing 2812
sing@@ 2812
supervision 2812
Desk 2811
Edition 2811
Hier@@ 2811
SM@@ 2811
Vorsch@@ 2811
beschrieben 2811
gebeten 2811
thousand 2811
weite 2811
Schön@@ 2810
festzulegen 2810
Box 2809
Newsletter 2809
ish@@ 2809
suggested 2809
trial 2809
welcomed 2809
Fax 2808
Tibet 2808
ential 2807
laufenden 2807
sah 2807
Mission 2806
Coun@@ 2805
vorliegende 2805
Ebenen 2804
Wes@@ 2804
Wo@@ 2804
bet 2804
component 2804
remarks 2804
trend 2804
Donnerstag 2803
Verlust 2803
Perspektive 2802
Wirtschaftswachstum 2802
manche 2802
penalty 2802
verw@@ 2802
Kontakt@@ 2801
angebracht 2801
innov@@ 2801
prote@@ 2801
traditions 2801
verein@@ 2801
Good 2800
Regierungschefs 2800
rem@@ 2800
Commissioners 2799
Num@@ 2799
Rap@@ 2799
Tim@@ 2799
beings 2799
bewähr@@ 2799
typ@@ 2799
appearance 2798
orts 2798
teilung 2798
Dol@@ 2797
Plattform 2797
amed 2797
professionals 2797
zeichnen 2797
Finanzierungs@@ 2796
erst@@ 2796
forests 2796
probleme 2796
slow 2796
smus 2796
sozi@@ 2796
Abschaffung 2795
Aktu@@ 2795
Wachstums@@ 2795
hair 2795
trags 2795
ury 2795
verfügbaren 2795
wechsel 2795
Mari@@ 2794
ücken 2794
Notes 2793
Zy@@ 2793
kräfte 2793
module 2793
hy@@ 2792
relaxation 2792
Respekt 2791
driver 2791
recorded 2791
66 2790
cian 2790
individuelle 2790
stung 2790
aner 2789
banking 2789
bs@@ 2789
ond 2789
71 2788
Berichten 2788
Kontakte 2788
TR@@ 2788
awarded 2788
obstacles 2788
Grünen 2787
betreiben 2787
input 2787
interior 2787
Kauf 2786
arise 2786
succ@@ 2786
distributed 2785
ausgegeben 2784
chts@@ 2784
revi@@ 2783
Film@@ 2782
elektronischen 2782
gerufen 2782
pass@@ 2782
vieles 2782
15. 2780
Eis@@ 2780
Ram@@ 2780
reli@@ 2780
Handels 2779
ade@@ 2779
disk 2779
heim@@ 2779
ok 2779
behoben 2778
inger 2778
verdienen 2778
jetzigen 2777
Herz@@ 2776
beendet 2776
strategische 2776
undoubtedly 2776
gesetzten 2774
militärische 2774
slightly 2774
Fel@@ 2773
Kop@@ 2773
clean@@ 2773
sierte 2773
stocks 2773
paying 2772
Denk@@ 2771
Park@@ 2770
Pläne 2770
etes 2770
listings 2770
schen@@ 2770
supplies 2770
ental 2769
exploitation 2769
still@@ 2769
tested 2769
ziel@@ 2769
gewis@@ 2768
kanischen 2768
vertrau@@ 2767
violations 2766
ähnliche 2766
entes 2765
sprech@@ 2765
aming 2764
arm 2764
selben 2764
wert@@ 2764
approve 2763
cash 2763
politisches 2763
Einkommen 2762
attri@@ 2762
deswegen 2762
reali@@ 2762
Having 2761
Year 2761
barriers 2761
budgets 2761
hoffentlich 2761
generate 2760
leistungen 2760
weitgehend 2760
wettbewerbs@@ 2760
derte 2759
Fal@@ 2758
Gemeinsame 2758
department 2758
trac@@ 2758
Rent@@ 2757
Sig@@ 2757
humanitäre 2757
proven 2756
richtet 2756
verständlich 2756
Nah@@ 2755
break@@ 2755
Archi@@ 2754
Pack@@ 2754
Wohnung 2754
inde@@ 2754
justi@@ 2754
organ@@ 2754
Ferien@@ 2753
Rus@@ 2753
Schiff@@ 2753
armed 2753
Balkan 2752
Monday 2752
schrift 2752
sicherung 2752
Eri@@ 2751
kette 2751
routes 2751
sit 2750
straight 2750
alities 2749
courage 2749
leistung 2749
Rechtsstaatlichkeit 2748
mern 2748
Schiffe 2747
characters 2747
rock 2747
Krisen@@ 2746
aktiviert 2746
providers 2746
spot 2744
verkehrs@@ 2744
äh@@ 2744
4. 2743
Americans 2743
hör@@ 2743
vacation 2743
Allianz 2742
auen 2742
refers 2742
sichts@@ 2742
bisherigen 2741
ungsverfahren 2741
enabling 2740
geäußert 2740
massage 2740
sovereignty 2740
gste 2739
ologischen 2739
11.@@ 2738
sustainability 2738
S. 2737
Software@@ 2737
Amt 2736
Kurz@@ 2736
AM 2735
Arbeit@@ 2735
Based 2735
Stra@@ 2735
faith 2735
schie@@ 2735
Glück 2734
SS@@ 2734
functional 2734
0.000 2733
CON@@ 2733
Feld 2733
erfreut 2733
investigation 2733
unentgeltlich 2733
Client 2732
Like 2732
peti@@ 2732
valley 2732
virtual 2732
Regional 2731
stag@@ 2731
Ag@@ 2730
dialog 2730
hierbei 2730
mussten 2730
ständi@@ 2730
î@@ 2730
Gang 2729
Konflikte 2729
corner 2729
gewähren 2729
ACP 2728
Finland 2728
heat 2728
manufacturer 2728
mo 2728
receiving 2728
swe@@ 2728
wrote 2728
Verk@@ 2727
eit 2727
weak 2727
Schwei@@ 2726
directed 2726
konzentriert 2726
sin@@ 2726
Videos 2725
gehend 2725
sie@@ 2725
suffered 2725
Mün@@ 2724
root 2724
windows 2724
zukünftige 2724
erwähnen 2723
flug@@ 2723
gelingt 2723
Würde 2722
topics 2722
BO@@ 2720
Beteiligten 2720
Tool 2720
mul@@ 2720
Gerade 2719
permitted 2719
Ganz 2718
Trau@@ 2718
gründen 2718
einheitliche 2717
Av@@ 2716
U.S. 2716
Kriminalität 2715
basi@@ 2715
ci 2715
gemeinschaft 2715
iness 2714
On@@ 2713
ensures 2713
hundred 2713
Aufsichts@@ 2712
PA 2712
ops 2712
Schwer@@ 2711
erzeugt 2711
ex 2711
fas@@ 2711
studio 2711
Anschluss 2710
Lieferung 2710
Training 2710
adapt 2710
concepts 2710
wat@@ 2710
Wählen 2709
rati@@ 2709
refer@@ 2709
unfair 2709
Roh@@ 2708
lounge 2708
ading 2707
elte 2707
mix 2707
cont@@ 2706
explained 2706
invited 2706
mung 2706
ähnlich 2706
cial 2705
Ed@@ 2704
Vertrages 2704
gelassen 2704
lift 2704
stens 2704
transpor@@ 2704
Ausmaß 2703
accurate 2703
portal 2703
realer 2703
Bed@@ 2702
Egypt 2702
fly 2702
nar@@ 2702
ECB 2701
facility 2701
ope 2701
traditionelle 2701
Adri@@ 2700
Anim@@ 2700
Ken@@ 2700
bereitgestellt 2700
interessant 2700
saving 2700
sively 2700
Anstieg 2699
shipping 2699
Chinas 2698
Prozesse 2698
enthaltenen 2698
hearing 2698
play@@ 2698
Datei@@ 2697
chtet 2697
parliament 2697
besorgt 2696
gained 2696
ham 2696
prime 2696
88 2695
gedacht 2695
umin@@ 2695
unabhängigen 2695
yed 2695
Besonder@@ 2694
Islamic 2694
Professor 2694
Vel@@ 2694
ap 2694
believes 2694
description 2694
gardens 2694
coordinated 2693
finish 2693
erreichbar 2692
addresses 2691
Rechten 2690
Wellness 2690
domain 2690
everybody 2690
raten 2690
Zone 2689
mangel@@ 2689
ées 2689
MA 2688
Nachbar@@ 2688
Tausende 2688
contributed 2688
geräte 2688
Miß@@ 2687
filter 2687
lec@@ 2687
57 2686
Sunday 2686
reduziert 2686
label 2685
Offen@@ 2684
isen 2684
lovely 2684
Sind 2683
imagine 2683
prev@@ 2683
unterscheiden 2683
werken 2683
hi 2682
punkte 2682
è 2682
bedanken 2681
lined 2681
SD@@ 2680
dence 2680
praktische 2680
u.a. 2680
wonach 2680
Kli@@ 2679
manu@@ 2679
cle 2678
fertig 2678
gebildet 2678
offene 2678
Digital 2677
EA 2677
Georgia 2677
lieber 2677
pers 2677
wege 2677
eld 2676
supposed 2676
Cri@@ 2675
Ombudsman 2675
Refer@@ 2675
Weiteren 2675
Berichterstatters 2674
Gran 2674
ests 2674
festgelegten 2674
tto 2674
uted 2674
geraten 2673
sought 2673
Forsch@@ 2672
ail 2672
eingegangen 2672
packaging 2672
wohl@@ 2672
Stre@@ 2671
formation 2671
langsam 2671
alized 2670
Programm@@ 2669
belief 2669
einzuführen 2669
fishermen 2669
tels 2669
tex@@ 2669
Law 2668
centuries 2668
kompet@@ 2668
ums@@ 2668
Sec@@ 2667
ergibt 2667
everyday 2667
assess 2666
relative 2666
effek@@ 2665
periods 2665
Tourism 2663
Veränderung 2663
ursprünglich 2663
vollständigen 2663
clause 2662
lis 2662
ron 2662
PSE 2661
erzeu@@ 2661
Vater 2660
photo@@ 2660
griffen 2659
sidenten 2659
spectacular 2659
ão 2659
Opposition 2658
aktu@@ 2658
dere 2658
Canon 2657
Director 2657
Main 2657
Parlamente 2657
antworten 2657
spartner 2656
BC 2655
Golf@@ 2655
Schu@@ 2655
appe@@ 2655
beschränken 2655
greift 2655
irre@@ 2655
welcomes 2655
Cer@@ 2654
Vereinfachung 2654
appropriations 2654
Eurozone 2653
kli@@ 2653
lock 2653
steuern 2653
stimm@@ 2653
gran@@ 2652
Brun@@ 2651
pm 2651
Does 2650
Erinnerung 2650
Marke 2650
Pak@@ 2650
indicate 2650
umsetzen 2650
EM 2649
gendes 2649
lian 2649
sphere 2649
leaves 2648
Ursachen 2647
wis@@ 2647
cosy 2646
enheit 2646
restricted 2646
waffen 2646
Kriegs@@ 2644
a.@@ 2644
gate 2644
gegenwärtige 2644
genannte 2644
loo@@ 2644
planet 2644
zugrunde 2644
Pakete 2643
Versionen 2643
resource 2643
trieben 2643
Konto 2642
dict@@ 2642
restructuring 2642
contextual 2641
publi@@ 2641
sü@@ 2641
tei@@ 2641
wechsel@@ 2641
whereas 2641
SC@@ 2639
kontrollieren 2639
strengthened 2639
Kap@@ 2638
gnissen 2638
handle 2638
gut@@ 2637
regardless 2637
shadow 2637
Debatten 2636
Märkten 2636
vereinbart 2636
acknowledge 2635
reit@@ 2635
spra@@ 2635
nei@@ 2634
Gold@@ 2633
arly 2633
drop 2633
tea 2633
Institu@@ 2632
Lab@@ 2632
artistic 2631
besonderer 2631
funktion@@ 2631
mitglieder 2631
wirk@@ 2631
nbsp 2630
Ari@@ 2629
Consumer 2629
Währungsunion 2629
Bars 2628
acceler@@ 2628
undertaken 2628
entrance 2627
Holiday 2626
Ke@@ 2626
Viertel 2626
magnificent 2626
ema 2625
froh 2625
legitim@@ 2625
pris@@ 2625
Culture 2624
SS 2624
ager 2624
cells 2624
eventually 2624
nit@@ 2624
publication 2624
о 2624
Haf@@ 2623
zuzu@@ 2623
Sony 2622
resul@@ 2622
tennis 2622
bestimmungen 2621
merk@@ 2621
none 2621
Touristen 2620
Verteilung 2620
objek@@ 2620
Bereitschaft 2619
Stockholm 2619
connect 2619
CAP 2618
aben 2618
hardly 2618
itäts@@ 2618
Finanzkrise 2617
Playa 2617
Rob@@ 2617
gesetz@@ 2617
gestärkt 2617
hr 2617
Vir@@ 2616
missing 2616
Zahlungen 2615
auffordern 2615
este 2615
champ@@ 2614
Gerichts@@ 2613
errors 2613
nütz@@ 2613
ong@@ 2613
reflected 2613
actors 2612
hier@@ 2612
Straßburg 2610
Zusammenhalt 2610
university 2610
Tages 2609
üssen 2609
Balkon 2608
akzep@@ 2608
dance 2608
severe 2608
17. 2607
politi@@ 2607
worthy 2607
Kanada 2606
Quality 2606
erkannt 2606
theory 2606
Theater 2605
itä@@ 2605
ländliche 2605
weekend 2605
hear@@ 2604
kontrolle 2604
kraft@@ 2604
überaus 2604
02@@ 2603
hostel 2603
sichtbar 2603
Ausflüge 2602
Fas@@ 2602
Sudan 2602
fourth 2602
notes 2602
passen 2602
dauert 2601
supplier 2601
Charles 2600
bank@@ 2600
integriert 2600
than@@ 2600
Spaß 2599
Wirtschaftskrise 2599
alisierten 2599
angepasst 2599
Arbeitsplatz 2598
Finde 2598
Ratschlag 2598
Todesstrafe 2598
Cha@@ 2597
Dialogs 2597
Nord 2597
par 2597
wahren 2597
Wald@@ 2596
absor@@ 2596
concentrate 2596
considerably 2596
scene 2596
wear 2596
worst 2596
Fon@@ 2595
Mittelmeer 2595
Prüf@@ 2595
Schwar@@ 2595
Armee 2594
Freitag 2593
entwickelte 2593
verteilt 2593
Abhängigkeit 2591
Earth 2590
Faktor 2590
Haar@@ 2590
Know 2590
Who 2590
ases 2590
Ton@@ 2589
steigt 2589
west@@ 2589
Kontinent 2588
Mir 2588
WLAN 2588
bonus 2587
ham@@ 2587
hervorragenden 2587
Vice 2586
reflects 2586
unterliegen 2586
Gelder 2585
initi@@ 2585
schm@@ 2585
Dafür 2584
arbeits@@ 2584
kontaktieren 2584
philosophy 2584
restore 2584
saved 2584
schwer@@ 2583
Salzburg 2582
irischen 2582
licht 2582
projekte 2582
fs@@ 2581
hill 2581
legi@@ 2581
mar 2581
verboten 2581
Dritten 2580
Mul@@ 2580
Systemen 2579
patient 2579
sab@@ 2579
unabhängige 2579
Sein 2578
gering 2578
thy 2578
Design@@ 2577
ato@@ 2577
dream 2577
excluded 2577
schw@@ 2577
ständen 2577
verweisen 2577
kleines 2576
uli@@ 2576
Lok@@ 2575
Son@@ 2575
Urheber@@ 2575
lte 2575
plenty 2575
tie 2575
zy 2575
mas 2574
Werbe@@ 2573
empfangen 2573
winning 2573
Branche 2572
Staatsan@@ 2572
diversi@@ 2572
symbol 2572
zurückzuführen 2572
Don 2571
Konzer@@ 2571
täten 2571
äden 2571
Dre@@ 2570
Jugend 2570
deck@@ 2570
gefallen 2570
reaction 2570
struktur 2570
weis@@ 2570
Tou@@ 2569
programming 2569
г@@ 2569
Einwohner 2568
Kra@@ 2568
Place 2568
Rückkehr 2568
Umweltfragen 2568
films 2568
richtung 2567
Bern@@ 2566
Mutter@@ 2566
Poly@@ 2566
Weg@@ 2566
gerät 2566
vessels 2565
Anti 2564
Wur@@ 2564
auff@@ 2564
meaningfully 2564
updates 2564
§ 2564
67 2563
homes 2563
türkischen 2563
Parlament@@ 2562
estimated 2562
sil@@ 2562
Ph@@ 2561
Tem@@ 2561
existiert 2561
Posi@@ 2560
bares 2560
richtlinie 2560
Besu@@ 2559
Mail@@ 2559
sist@@ 2559
Nummer 2558
dic@@ 2558
tables 2558
tiz@@ 2558
Entwick@@ 2557
Sachen 2557
territorial 2557
bekannte 2556
externen 2556
stylish 2556
Fi 2555
intends 2555
pillar 2555
turning 2555
Umweltschutz 2554
parameters 2554
sichergestellt 2554
stry 2554
Agenturen 2553
Beseitigung 2553
stands@@ 2553
wunderschönen 2553
94 2552
Listings 2552
gefragt 2552
geschichte 2552
stern 2552
FT@@ 2551
pure 2551
selling 2551
vice 2551
festlegen 2550
geeignete 2550
hart 2550
häuser 2550
Dienstleistungs@@ 2549
Luxemburg 2549
dering 2549
sufficiently 2549
я 2549
77 2548
doub@@ 2548
Education 2547
angewendet 2547
fassung 2547
rental 2547
bewältigen 2546
etr@@ 2546
generations 2546
wave 2546
Should 2545
arti@@ 2545
departure 2545
fähigen 2545
liefer@@ 2545
Öffnung 2545
Geneva 2544
Kopenhagen 2544
dent 2544
depth 2544
fairly 2544
hung 2544
zentren 2544
Gerät 2543
einhei@@ 2543
Ol@@ 2542
anne 2542
bekann@@ 2542
reconstruction 2542
Erhaltung 2541
HTML 2541
clim@@ 2541
kontextuellen 2541
stä@@ 2541
videos 2541
Nahrungsmittel@@ 2540
cky 2540
öst@@ 2540
Führer 2539
PC@@ 2539
Personal@@ 2539
Zer@@ 2539
angemessenen 2539
Blan@@ 2538
Fehler@@ 2538
Lastly 2538
productivity 2538
Cir@@ 2537
Frist 2537
overview 2537
steten 2537
denjenigen 2536
destroyed 2536
entdeckst 2536
Mir@@ 2535
Ty@@ 2535
drei@@ 2535
fans 2535
umzu@@ 2535
urgently 2535
verfol@@ 2535
BMW 2534
Standort 2534
aqu@@ 2534
dienst@@ 2534
Lounge 2533
Zusätzlich 2533
eil 2533
konkret 2533
lenken 2533
movements 2533
rieren 2533
sections 2532
überwinden 2532
methoden 2531
bach 2530
freundlich 2530
Besides 2529
tert 2529
TO@@ 2528
accident 2528
einzigartigen 2528
contextually 2527
gements 2527
portfolio 2527
Quelle 2526
Scho@@ 2526
countryside 2526
grammatically 2526
ichten 2526
konferenz 2526
nde 2526
verbindet 2526
ч@@ 2526
hinzufugen 2525
korrekt 2525
mäß@@ 2525
ori 2525
Papier 2524
derzeitige 2524
killed 2524
recognized 2524
grammatisch 2523
su 2523
Glas@@ 2522
Sou@@ 2522
enhanced 2522
entspannen 2522
stärkere 2522
therapy 2522
umfassend 2522
XP 2521
arrived 2521
kontextuell 2521
82 2520
Provinz 2520
letzter 2520
sach@@ 2520
sparen 2520
tree 2520
Mechanismen 2519
della 2519
gelesen 2519
natürliche 2518
Asian 2517
Schlusselphrase 2517
Schlusselwort 2517
ament 2517
ned 2517
organic 2517
Körper@@ 2516
aufgezahlt 2516
productive 2516
remin@@ 2516
Öl 2516
6. 2515
Resolution 2514
Boden@@ 2513
Gut@@ 2513
Non 2513
Parlaments@@ 2513
chti@@ 2513
dness 2513
modern@@ 2513
sammeln 2513
ION 2512
ization 2512
oring 2512
threats 2512
Berg 2511
Wesentlichen 2511
untern@@ 2511
Town 2510
nützlich 2510
ume 2510
Gast 2509
Menü 2509
Rem@@ 2509
Trop@@ 2509
rechnen 2509
Consequently 2508
acceptance 2508
villages 2508
Inform@@ 2507
Zypern 2507
elen 2507
schweren 2507
Augenblick 2506
drinks 2506
ologische 2506
Dingen 2505
Quellen 2505
letz@@ 2505
stattfindet 2505
well@@ 2505
Bestimmung 2504
highlighted 2504
villa 2504
Fan@@ 2503
entr@@ 2503
günsti@@ 2503
sional 2503
absol@@ 2502
amt 2502
conver@@ 2502
relates 2502
vin@@ 2502
Börse 2501
Meeting 2500
Modelle 2500
anschließend 2500
aran@@ 2500
lischen 2500
Tei@@ 2499
Treaties 2499
effiziente 2499
Jun@@ 2498
Wissen@@ 2498
verwaltung 2498
16. 2497
Facilities 2497
Landes@@ 2497
briefly 2497
Sicherheitspolitik 2496
ario 2496
glaub@@ 2496
oo 2496
schwei@@ 2496
continuous 2495
stages 2495
tun@@ 2495
rare 2494
CHF 2493
coherent 2493
esc@@ 2493
fang 2493
managing 2493
Dokumenten 2492
Niederlanden 2492
vornehmen 2492
anhand 2491
fitness 2490
trends 2490
Kohäsionspolitik 2489
filled 2489
Corporate 2487
Islands 2487
checks 2487
miles 2487
täglichen 2487
Nam@@ 2486
Tau@@ 2486
brachte 2486
deeply 2486
Passwort 2485
modi@@ 2485
schnell@@ 2485
untersucht 2485
zwingen 2485
cancer 2484
non@@ 2484
Runde 2483
rechtzeitig 2483
unterschiedlich 2483
Belgian 2482
Fahrzeuge 2482
Wechsel@@ 2482
beenden 2482
fanden 2482
jo 2482
normalen 2482
posed 2482
Industry 2481
Will@@ 2481
zukommen 2481
Through 2480
neighbouring 2480
ols 2480
protocol 2480
ville 2480
Verarbeitung 2479
federal 2479
heading 2479
ichte 2479
showed 2479
Kit@@ 2478
Sammlung 2478
een 2478
moder@@ 2478
palästinensischen 2478
sible 2478
freely 2477
sierungs@@ 2477
63 2476
dargestellt 2476
dungs@@ 2476
Constitutional 2475
Mont@@ 2475
ahn@@ 2475
heißen 2475
Andere 2474
alisieren 2474
bekommt 2474
engli@@ 2474
klu@@ 2474
legte 2474
Büro 2473
Es@@ 2473
GAP 2472
altet 2472
könnt 2472
leichter 2472
birth 2471
sz@@ 2471
Bir@@ 2470
dal 2470
krise 2470
va@@ 2470
Space 2469
colours 2469
cultures 2469
ford 2469
presenting 2469
zeug 2469
James 2468
Schrift@@ 2468
adapted 2468
profits 2468
clarify 2467
equi@@ 2467
erfordern 2467
geschäf@@ 2467
gewählten 2467
BR@@ 2466
Rio 2466
spr@@ 2466
Bü@@ 2465
Publi@@ 2465
Thailand 2465
bereiten 2465
humanitären 2465
linien 2465
Direc@@ 2464
Herr@@ 2464
atik 2463
blick 2463
Dep@@ 2462
Geschmack 2462
komp@@ 2462
dead 2461
insist 2461
Schreiben 2460
entgegen 2460
Mandat 2459
erhielt 2459
hö@@ 2459
ras@@ 2459
Point 2458
Recht@@ 2458
Saddam 2458
beru@@ 2458
Presse 2457
ausgaben 2457
considers 2457
electric 2457
fähi@@ 2457
ony@@ 2457
euros 2456
pä@@ 2456
quar@@ 2456
nat@@ 2455
negativen 2455
rad 2455
honour 2454
wendet 2454
Mah@@ 2452
Venice 2452
nel 2452
ación 2451
alisiert 2451
gement 2451
keinem 2451
Geschäft 2450
sau@@ 2450
vis 2450
ökonomischen 2450
Guide 2449
Verlauf 2449
dens 2449
diesbezüglich 2449
geplant 2449
griechischen 2449
kurs 2449
run@@ 2449
Christ@@ 2448
Fron@@ 2448
Stärke 2448
ktion@@ 2448
mine 2448
AF@@ 2447
Handlungs@@ 2447
Strom@@ 2447
altern@@ 2447
arising 2447
ausgezeichnet 2447
materi@@ 2447
Gemeinde 2446
Information@@ 2446
Key@@ 2446
affects 2446
gehör@@ 2446
89 2445
Master 2445
Tour@@ 2445
Willkommen 2445
Bul@@ 2444
Generationen 2444
aire 2444
enorme 2444
iPhone 2444
verfahrens 2444
enjoyed 2443
upper 2443
Fitness@@ 2442
Internationale 2442
berichten 2442
confirmation 2442
enterprise 2442
mistake 2442
voc@@ 2442
ep 2441
produzieren 2441
tari@@ 2441
tief 2441
Pfer@@ 2440
Versammlung 2440
cement 2440
geographical 2440
thers 2440
festzustellen 2439
grund@@ 2439
optimale 2439
targeted 2439
anlage 2438
auto@@ 2438
phenomenon 2438
universities 2438
Denmark 2437
Zimmer@@ 2437
bestellen 2437
collected 2437
convergence 2437
deposit 2437
oper@@ 2437
forth 2436
Champ@@ 2435
Foto@@ 2435
Hohe 2435
Rö@@ 2435
Pho@@ 2434
Verbraucherschutz 2433
Vertretern 2433
entsp@@ 2433
makers 2433
visu@@ 2433
Lang@@ 2432
shot 2432
fikation 2431
learned 2431
untersuchen 2431
7. 2430
LA 2430
heit@@ 2430
hingegen 2430
4,@@ 2429
Besitz@@ 2429
Co 2429
diplomatic 2429
lev@@ 2429
senken 2429
Gran@@ 2428
inten@@ 2428
istic 2428
museums 2428
proportion 2428
wachsenden 2428
esse 2427
tech 2427
hohem 2426
nd 2426
occurred 2426
os@@ 2426
Diam@@ 2425
Equ@@ 2425
Großteil 2425
ished 2425
owned 2425
62 2424
Next 2424
Vista 2424
cer 2424
nutz@@ 2424
renowned 2424
Cu@@ 2423
Regel@@ 2423
anzunehmen 2423
nissen 2423
sex 2423
strukturi@@ 2423
Hong 2422
illegale 2422
Leitung 2421
europäisches 2421
normalerweise 2421
promise 2421
referring 2421
Grün@@ 2420
Steuerung 2420
Vietnam 2420
Wi 2420
belong 2420
entfernen 2420
füll@@ 2420
körper@@ 2420
mere 2420
thin 2420
wahr 2420
entscheidenden 2419
Stiftung 2418
Urteil 2418
Zug 2418
essi@@ 2418
football 2418
Hans 2417
Hö@@ 2417
König@@ 2417
bedeutenden 2417
geprägt 2417
prospects 2417
10. 2416
Orte 2416
Over@@ 2416
hast 2416
inmitten 2416
quotas 2416
Mes@@ 2415
gres@@ 2415
luxurious 2415
Hindernisse 2414
specialist 2414
König 2413
Partner@@ 2413
Wandel 2412
employed 2412
12.00 2411
Alt@@ 2411
Sat@@ 2411
Valley 2411
agt 2411
gehei@@ 2411
regu@@ 2410
aw@@ 2409
pel@@ 2409
Piazza 2408
Schau@@ 2408
ags 2408
aut@@ 2408
pes 2408
rolle 2408
Fundamental 2407
aside 2407
prisoners 2407
Anonymous 2406
Herz 2406
löschen 2406
subsequent 2406
tory 2406
verz@@ 2406
Energieeffizienz 2405
inos 2405
seri@@ 2405
Cooperation 2404
Kandidaten 2404
alty 2404
Staats- 2403
appeared 2403
überlassen 2403
mechan@@ 2402
rin@@ 2402
seeks 2402
sounds 2402
Glauben 2401
Vene@@ 2401
aviation 2401
betra@@ 2401
wild 2401
individuell 2400
instructions 2400
Dach@@ 2399
Datum 2399
alem 2399
erstmals 2399
gewünschten 2399
mini 2399
Common 2398
Eu@@ 2398
Kong 2398
adds 2398
combine 2398
passt 2398
schwierige 2398
stör@@ 2398
Andererseits 2397
Hostel 2397
LT 2397
inklusive 2397
lierten 2397
Marken 2396
candidates 2396
dev@@ 2396
Beachtung 2395
uter 2395
Mallorca 2394
mögen 2394
ose 2394
zweitens 2394
Mechanismus 2393
ator@@ 2393
grös@@ 2393
joining 2393
num@@ 2393
ares 2392
poses 2392
Übrigen 2392
Gemeinschaften 2390
internationally 2390
HO@@ 2389
gelegenen 2389
iner@@ 2389
komple@@ 2389
selten 2389
Kern 2388
HU 2387
Schweizer 2387
grad 2387
Deutsch 2386
amm 2386
hierfür 2386
atz 2385
befasst 2385
vertrag 2385
wür@@ 2385
dep@@ 2384
isti@@ 2384
Secretary 2383
festen 2383
urgency 2383
ux 2383
Potenzial 2382
Amerikaner 2381
Senkung 2381
Vermittlungs@@ 2381
analyse 2381
ecological 2381
gram@@ 2381
holds 2381
letters 2381
nü@@ 2381
behält 2380
soeben 2380
ativ@@ 2379
eat 2379
essentially 2379
secre@@ 2379
umfangreiche 2379
wirkliche 2379
Außen- 2378
Geschwindigkeit 2378
Saturday 2378
Verwirklichung 2378
mes@@ 2378
Symbol 2377
Versorgung 2377
cken@@ 2377
erweitern 2377
remained 2377
bezahlt 2376
cir@@ 2376
Mr. 2374
Wür@@ 2374
fees 2374
jährige 2374
ophi@@ 2374
übersch@@ 2374
Reservierung 2373
angewandt 2373
effektive 2373
gefährdet 2373
stan 2373
PE 2372
Pack 2372
amended 2372
bewahren 2372
gestaltung 2372
imperi@@ 2372
Blue 2371
Kü@@ 2371
Neben@@ 2371
Schon 2371
camp@@ 2371
fahrer 2371
wesentlicher 2371
61 2370
Arbeitnehmern 2370
SU@@ 2370
pp 2370
Bour@@ 2369
Red@@ 2369
sper@@ 2369
unforgettable 2369
40@@ 2368
LU@@ 2368
Protocol 2368
gewal@@ 2368
Cup 2367
Doha 2367
ROM 2367
sco@@ 2367
stoßen 2367
fir@@ 2366
iens 2366
sees 2366
selbst@@ 2366
ura 2366
78 2365
NICHT 2365
Tonnen 2365
diagno@@ 2365
geleitet 2365
rechtlich 2365
roll@@ 2365
Ep@@ 2364
satisfy 2364
anwenden 2363
Darstellung 2362
wage 2362
Pil@@ 2361
Pon@@ 2361
bo 2361
Gem@@ 2360
Kreditkarte 2360
Lizenz 2360
aufgebaut 2360
decline 2360
desk 2360
ollen 2360
warning 2360
Ali@@ 2359
DC 2359
gesetzlichen 2359
Ausarbeitung 2358
Cast@@ 2358
Garden 2358
Investitions@@ 2358
transmission 2358
Unions@@ 2357
comparison 2357
cos 2357
male 2357
missions 2357
nine 2357
chem@@ 2356
sischer 2356
Det@@ 2355
Situated 2355
originally 2355
Authority 2354
Montag 2354
atively 2354
esti@@ 2354
müssten 2354
rupt 2354
Fried@@ 2352
OK 2352
Parameter 2352
Verein@@ 2352
melden 2352
trop@@ 2352
13. 2351
Indian 2351
Institut 2351
ologi@@ 2351
Reisen 2350
Religion 2350
Schad@@ 2350
Castle 2349
accidents 2349
cles 2349
ehrt 2349
uniform 2349
Kapital 2348
archi@@ 2348
decade 2348
female 2348
mittleren 2348
Berliner 2347
Fernsehen 2347
Jugendlichen 2347
Salz@@ 2347
Wirtschaftspolitik 2347
favourable 2347
struggle 2347
Florenz 2346
Il@@ 2346
SP 2346
Symp@@ 2346
tries 2346
Helsinki 2345
Jahrzehnten 2345
blocks 2345
poly@@ 2345
Dass 2344
Nachhaltigkeit 2344
finanzieren 2344
hypo@@ 2344
sorge 2344
8. 2343
Computer@@ 2342
Games 2342
IM 2342
Tabak@@ 2342
gleichermaßen 2342
individu@@ 2342
intern@@ 2342
op 2342
Ergebnissen 2341
efficiently 2341
gene@@ 2341
stran@@ 2341
kel 2340
Suiten 2339
classes 2339
Tsch@@ 2338
gehandelt 2338
inst@@ 2338
müsste 2338
reserved 2338
12. 2337
Polizei@@ 2337
commun@@ 2337
haber 2337
motor@@ 2337
ful@@ 2336
infolge 2336
kontrolliert 2336
Deb@@ 2335
intelligent 2335
transferred 2335
Errichtung 2334
Haben 2334
Tor 2334
functionality 2334
harmful 2334
utmost 2334
vorgelegten 2334
voraus 2333
Š@@ 2333
Cookies 2332
án 2332
Argumente 2331
Bis@@ 2331
Select 2331
prosec@@ 2331
vorbei 2331
Kategorien 2330
Mutter 2330
Tools 2330
geregelt 2330
succeeded 2330
Regulierung 2329
willingness 2329
treiben 2328
76 2327
dd@@ 2327
director 2327
Hat 2326
holi@@ 2326
Geschle@@ 2325
Wellness@@ 2325
älteren 2325
designs 2324
ease 2324
processed 2324
Ale@@ 2323
Christmas 2323
Content 2323
anniversary 2323
engaged 2323
het 2323
abend 2322
diert 2322
HIV 2321
Sin@@ 2321
binden 2321
gemä@@ 2321
lights 2321
pt@@ 2321
verletzt 2321
Abendessen 2320
Bedürfnissen 2320
Burma 2320
Serbien 2319
Absch@@ 2318
Journalisten 2318
annten 2318
assembly 2318
engage 2318
gesp@@ 2318
Apple 2317
achievement 2317
ratification 2317
Erst 2316
highlights 2316
wechseln 2316
zü@@ 2316
consequence 2315
ind 2315
б@@ 2315
Dritte 2314
Freund 2314
Somit 2314
Sonn@@ 2314
ausüben 2314
logical 2314
sin 2314
Minute 2313
reliability 2313
sektors 2313
Up 2312
equivalent 2312
fix 2312
vali@@ 2312
Detail 2311
Dies@@ 2311
Kampagne 2311
hood 2311
Federation 2310
eingebracht 2310
empfohlen 2310
multilateral 2310
märkte 2310
Ange@@ 2309
Ankunft 2309
ause 2309
außen 2309
encouraged 2309
stration 2309
án@@ 2309
itäten 2308
lived 2308
preserve 2308
strictly 2308
trips 2308
zog 2308
69 2307
Prote@@ 2307
adding 2307
disc@@ 2307
ji 2307
kümmern 2307
rol 2307
zweifel@@ 2307
Stuttgart 2306
Wiederaufbau 2306
Gir@@ 2305
Nizza 2305
Up@@ 2305
begleitet 2305
Bin@@ 2304
Blut@@ 2304
VER@@ 2304
Waffen@@ 2304
entering 2304
verstehe 2304
purely 2303
push 2303
roots 2303
ansprechen 2302
explanation 2302
incorporated 2302
CR@@ 2301
Jugend@@ 2301
Projekts 2301
echn@@ 2301
schnellen 2301
Danish 2300
iling 2300
oud 2300
tier 2300
Pul@@ 2299
zerstört 2299
Finnland 2298
Küsten@@ 2298
New@@ 2298
OLAF 2298
hopes 2298
lier 2298
å@@ 2298
debating 2297
eta 2297
regelung 2297
adverti@@ 2296
erstaun@@ 2296
nungen 2296
genaue 2295
Beide 2293
Mexiko 2293
ен@@ 2293
Customer 2292
fern@@ 2292
Alexander 2291
Casa 2291
Cl@@ 2291
Herbst 2291
bewerten 2291
consulting 2291
fährt 2291
pressing 2291
Zw@@ 2290
SCH@@ 2289
emplo@@ 2289
fru@@ 2289
sitzen 2289
widespread 2289
Schönheit 2288
erklärte 2288
ho 2288
lunch 2288
welcoming 2288
Cuba 2287
Modernisierung 2287
negotiation 2287
teils 2287
bende 2286
erzeugen 2286
gekennzeichnet 2286
nehme 2286
prec@@ 2286
supplied 2286
Gewal@@ 2285
Kompetenz 2285
delicious 2285
leitung 2285
Wirksamkeit 2284
ans@@ 2284
collect 2284
Bade@@ 2283
Mei@@ 2283
io 2283
scientists 2283
Parkplätze 2282
Tun@@ 2282
dark 2282
dau@@ 2282
regel@@ 2282
zentral 2282
AK@@ 2281
Eink@@ 2281
Sau@@ 2281
ati 2281
guided 2281
langer 2281
vention 2281
flächen 2280
liked 2280
direc@@ 2279
Dro@@ 2278
Form@@ 2278
Genießen 2278
Konvent 2278
PD@@ 2278
extra@@ 2278
krimin@@ 2278
sä@@ 2278
vorliegen 2278
Tests 2277
Vorsitzenden 2277
poorest 2277
stake 2277
Joseph 2276
Werten 2276
brau@@ 2276
bus@@ 2276
ergänzt 2276
everywhere 2276
kern 2276
praktischen 2276
Les 2275
Patent@@ 2275
halt@@ 2275
jedenfalls 2275
Anbetracht 2273
Employment 2273
Joint 2273
UNESCO 2273
azi@@ 2272
gültig 2272
refle@@ 2272
roo@@ 2272
Demokraten 2270
Pir@@ 2270
Registrierung 2270
chair 2270
conciliation 2270
einfach@@ 2270
prison 2270
Nor 2269
aut 2269
einf@@ 2269
Investoren 2268
agi@@ 2268
crises 2268
funded 2268
Ägypten 2268
Entschlossenheit 2267
Ima@@ 2267
NO@@ 2267
Souveränität 2267
neighbours 2267
offizielle 2267
pools 2267
cell 2266
marine 2266
radik@@ 2266
verti@@ 2266
ín 2266
alcohol 2265
auswählen 2265
sit@@ 2265
Australia 2264
Präsenz 2264
ange 2264
schn@@ 2264
Cho@@ 2263
Maschine 2263
Völker@@ 2263
rob@@ 2263
Hinweise 2262
Premierminister 2262
Schiff 2262
damages 2262
fts 2262
inated 2262
revolution 2262
dings 2261
ride 2261
Fisheries 2260
Mark 2260
dumping 2260
spät 2260
etri@@ 2259
premi@@ 2259
dispute 2258
por 2258
Bearbeitung 2257
Höchst@@ 2257
Search 2257
weak@@ 2257
eur@@ 2256
iniert 2256
Zahlung 2255
ats@@ 2255
gradually 2255
ison 2255
sichtlich 2255
song 2255
suit 2255
ANT@@ 2254
Gor@@ 2254
akte 2254
gelangt 2254
panel 2254
sus 2254
vorzunehmen 2254
sson 2253
statten 2253
viertel 2253
kel@@ 2252
regulated 2252
rig@@ 2252
Administration 2251
gue 2251
implications 2251
airports 2250
seconds 2250
14. 2249
selber 2249
Überblick 2249
73 2248
Audio 2248
Mol@@ 2248
codecision 2248
eventuell 2248
sexu@@ 2248
ausgewählt 2247
eingestellt 2247
executive 2247
parlamentarischen 2247
shift 2247
surprised 2247
Prozeß 2246
Schloss 2246
cleaning 2246
eingeleitet 2246
itable 2246
beseitigen 2245
causing 2245
iled 2245
modules 2245
vern 2245
Mem@@ 2244
Vereinigte 2244
aring 2244
überwachen 2244
Feu@@ 2243
hierzu 2243
xen 2243
Intergovernmental 2242
druck@@ 2242
dt 2242
leich@@ 2242
losigkeit 2242
super 2242
Exper@@ 2240
Haut 2240
Ratifizierung 2240
Sol 2240
enforcement 2240
stätigkeit 2240
Would 2239
ousness 2239
tionally 2239
Ashton 2238
liter@@ 2238
resulted 2238
900 2237
Ker@@ 2237
bis@@ 2237
fähige 2237
offenbar 2237
Project 2236
beeinflussen 2236
Photo@@ 2235
ätze 2235
CC 2234
bearbeiten 2234
condemn 2234
faces 2234
integrierten 2234
Wochenende 2233
derten 2233
integrate 2233
9. 2232
Gesetzes@@ 2232
Parkplatz 2232
Personen@@ 2232
sterben 2232
Kranken@@ 2231
arbeitete 2231
chairman 2231
convention 2231
folge 2231
gefähr@@ 2231
heads 2231
individually 2231
stammt 2231
GT@@ 2230
Tür 2230
formul@@ 2230
uring 2230
IMF 2229
Verbrau@@ 2229
bewußt 2229
factory 2229
promises 2229
Armen@@ 2228
Tel 2228
Widerstand 2228
eda 2228
normally 2228
popul@@ 2228
stuff 2228
Einen 2227
Vorstellungen 2227
inge 2227
legitimacy 2227
Investment 2226
Todes@@ 2226
ruhig 2226
stammen 2226
travelling 2226
Weil 2225
caf@@ 2225
lieben 2225
Plas@@ 2224
ffe 2224
tigkeiten 2224
Eingang 2223
Kla@@ 2223
SK 2223
Transpor@@ 2223
computers 2223
genes 2223
gere 2223
langfristig 2223
Übertragung 2223
choices 2222
constitutes 2222
hospitality 2222
Internal 2221
Sektors 2221
edition 2221
sisch 2221
Add 2220
Museen 2220
Rand@@ 2220
compulsory 2220
observed 2220
pit@@ 2220
porting 2220
surprise 2220
tual 2220
airlines 2219
armen 2219
asp@@ 2219
bun@@ 2219
gehörigen 2219
gemeinsames 2219
alistischen 2218
programmen 2218
attached 2217
digitalen 2217
Zimmerbeschreibung 2216
aufbauen 2216
gewer@@ 2216
gradu@@ 2216
ima@@ 2216
radical 2216
samen 2216
Anwendungs@@ 2215
Betten 2215
Civil 2215
extending 2215
geber 2215
medicines 2215
meets 2215
ansehen 2214
spite 2214
tile 2214
verurteilen 2214
zeichnungen 2214
aufzubauen 2213
steh@@ 2213
addressing 2212
Patten 2211
Slovakia 2211
formats 2211
governing 2211
ily 2211
journ@@ 2211
Be 2210
conf@@ 2210
gesellschaftlichen 2210
mä@@ 2210
printed 2210
secondly 2210
Tieren 2209
erteilt 2209
ple 2209
wort 2209
Hom@@ 2208
momentan 2208
tol@@ 2208
Ticket 2207
Zü@@ 2207
consul@@ 2207
miss 2207
81 2206
Aussage 2206
Politik@@ 2206
geblieben 2206
vre 2206
ALE 2205
Länge 2205
Seg@@ 2205
Wähler 2205
angehen 2205
dating 2205
genuinely 2205
Optim@@ 2204
Zeitung 2204
eing 2204
ords 2204
pace 2204
roll 2204
antes 2203
dei 2203
Elektro@@ 2202
Schulz 2202
fax 2202
associations 2201
hinaus@@ 2201
incentives 2201
nes 2201
Bom@@ 2200
Gibt 2200
Sobald 2200
thermal 2200
violation 2200
Aut@@ 2199
Wirtschaf@@ 2199
lösungen 2199
nächster 2199
tivität 2199
zusetzen 2199
Baby@@ 2198
Pati@@ 2198
Sul@@ 2198
oria 2198
revenue 2198
Bed 2197
Macht@@ 2197
izi@@ 2197
steigern 2197
tac@@ 2197
afrikanischen 2196
boost 2196
gestatten 2196
homo@@ 2196
Chile 2195
Email 2195
Full 2195
abilities 2195
annte 2195
Teams 2194
ologisch 2194
gepf@@ 2193
ped 2193
sand 2193
timetable 2193
Europ@@ 2192
Jerusalem 2192
operates 2192
ories 2192
recognize 2192
soil 2192
Intern@@ 2191
Revision 2191
conventional 2191
liable 2191
vergleich@@ 2191
EX 2190
Opera 2190
anim@@ 2190
anywhere 2190
hes 2189
html 2189
landwirtschaftlichen 2189
Text@@ 2188
USS 2188
sichti@@ 2188
Innovationen 2186
Verbrauchern 2186
achtet 2186
beinhalten 2186
lien 2186
mittlerweile 2186
trat 2186
vide@@ 2186
whereby 2186
Ordner 2185
besu@@ 2185
dry 2185
Erzeu@@ 2184
Gottes 2184
Sohn 2184
oning 2184
übergreif@@ 2184
External 2183
alt@@ 2183
lobby 2183
restored 2183
elli 2182
lla 2182
reagiert 2182
struc@@ 2182
tain@@ 2182
switch 2181
Car 2180
Seri@@ 2180
atten 2180
blei@@ 2180
retain 2180
cab@@ 2179
deserves 2179
eless 2179
hinweg 2179
iges 2179
Milch@@ 2178
Van@@ 2178
eliminate 2178
perfekte 2178
ärer 2178
Amts@@ 2177
Cou@@ 2177
Garantien 2177
brow@@ 2177
entdeckt 2177
klassischen 2177
repeated 2177
tti 2177
ра@@ 2177
Sierra 2176
folder 2176
Ausweitung 2175
Bag@@ 2175
antly 2175
ergänzen 2175
virtually 2175
Tür@@ 2174
Vordergrund 2174
kernel 2174
lichsten 2174
oftmals 2174
ouse 2174
Guests 2172
Regional@@ 2172
anzubieten 2172
schwere 2172
ua 2172
Solana 2171
grown 2171
richti@@ 2171
Entspannung 2170
Michel 2170
PH@@ 2170
execution 2170
5,@@ 2169
Auftrags@@ 2169
Bat@@ 2169
Blair 2169
Conc@@ 2169
Human@@ 2169
Lesen 2169
Na@@ 2169
30. 2168
Aspekten 2168
mented 2168
prozeß 2168
reporting 2168
twice 2168
Risiko@@ 2167
Satz 2167
bewer@@ 2167
linie 2167
spiele 2167
tiere 2167
bearing 2166
manufacture 2166
percentage 2166
tragic 2166
wertung 2166
Flughäfen 2165
Traditionen 2165
frem@@ 2165
intentions 2165
Fuß@@ 2164
fuer 2164
sorry 2164
Album 2163
Autos 2163
digungen 2163
produces 2163
schö@@ 2163
Akteure 2162
Events 2162
agents 2162
bevorzu@@ 2162
Alp@@ 2161
Cab@@ 2161
Lizenz@@ 2161
boards 2161
pet@@ 2161
87 2160
Nigeria 2160
spir@@ 2160
Betriebe 2159
Sachver@@ 2159
Zwar 2159
driven 2159
flug 2159
guaranteeing 2159
openness 2159
Der@@ 2158
Play@@ 2158
Invest@@ 2157
ordered 2157
Erreichung 2156
Mängel 2156
expor@@ 2156
Residence 2154
Typ@@ 2154
desirable 2154
musical 2154
ziger 2154
ô@@ 2154
Copyright 2153
ationale 2153
encies 2153
grade 2153
74 2152
Autobahn 2152
ierungen 2152
ons@@ 2152
tö@@ 2152
Ehre 2151
empty 2151
songs 2151
ssi@@ 2151
zige 2151
Kooperations@@ 2150
Labour 2150
acquired 2150
aster 2150
closure 2150
dist@@ 2150
loser 2150
prop@@ 2150
taining 2150
umgehen 2150
Konvention 2149
SL@@ 2149
appl@@ 2149
beginn@@ 2149
entliche 2149
frühen 2149
gal@@ 2149
Instruments 2148
Sound 2148
commit 2148
pick 2148
Road 2147
bringung 2147
organise 2147
ston 2147
Bibliothek 2146
Grundlagen 2146
Product 2146
alists 2146
expense 2146
glei@@ 2146
liger 2146
längst 2146
such@@ 2146
trav@@ 2146
Cr@@ 2145
Lern@@ 2145
Tat@@ 2145
Warcraft 2145
gur@@ 2145
wald 2145
Leu@@ 2144
Vertrag@@ 2144
passing 2144
prozesse 2144
sheet 2144
ändert 2144
aks 2143
wartet 2143
abe 2142
dated 2142
ih@@ 2142
Jedoch 2141
Nich@@ 2141
Tal 2141
beteiligten 2141
usage 2141
construc@@ 2140
politiken 2140
ungser@@ 2140
verwal@@ 2140
Argument 2139
Behörde 2139
Maß@@ 2139
gestal@@ 2139
glich@@ 2139
verse 2139
Science 2138
moreover 2138
movie 2138
participating 2138
Benutzung 2137
Wednesday 2137
begrün@@ 2137
fällig 2137
gross 2137
groß@@ 2137
Morocco 2136
ign@@ 2136
wellness 2136
Existenz 2135
Fehl@@ 2135
Palestinians 2135
Vorrang 2135
appro@@ 2135
ließen 2135
mehrfach 2135
vil@@ 2135
vorsch@@ 2135
öl 2135
Differ@@ 2134
FI 2134
alongside 2134
operator 2134
Family 2133
Have 2133
Planeten 2133
chapter 2133
compar@@ 2133
feu@@ 2133
keineswegs 2133
tnissen 2133
vable 2133
verringert 2133
yard 2133
Dänemark 2132
Klarheit 2132
lam@@ 2132
ökologischen 2132
1980 2131
Chairman 2131
Durchsetzung 2131
ausgehen 2131
elli@@ 2131
till 2131
Heads 2130
altung 2130
producer 2130
reck@@ 2130
й 2130
Among 2129
Immobilien 2129
hinzu@@ 2129
hungen 2129
komplette 2129
pretty 2129
s. 2129
Anmeldung 2128
eria 2128
Ferienwohnung 2127
Mart@@ 2127
forschung 2127
kr@@ 2127
räumen 2127
Angel@@ 2126
Porto 2126
besucht 2126
förder@@ 2126
troops 2126
accounting 2125
cus 2125
ř@@ 2125
Chan@@ 2124
Reserve 2124
Volkspartei 2124
cin@@ 2124
kus@@ 2124
küh@@ 2124
versammlung 2124
größeres 2123
italienische 2123
lehr@@ 2123
poll@@ 2123
progres@@ 2123
teaching 2123
automati@@ 2122
begins 2122
catch 2122
mente 2122
oned 2122
wirklichen 2122
colors 2121
freundlichen 2121
SAP 2120
Slowakei 2120
benden 2120
harmonisi@@ 2120
inadequate 2120
ino@@ 2120
mouse 2120
provo@@ 2120
twenty 2120
Übergang 2120
geschickt 2119
illu@@ 2119
oul@@ 2119
victory 2119
öff@@ 2119
Bö@@ 2118
Fassung 2118
Umwel@@ 2118
records 2118
variable 2118
vorgestellt 2118
Peti@@ 2117
herrlichen 2117
linken 2117
repeatedly 2117
UL@@ 2116
garten 2116
gegenüber@@ 2116
kla@@ 2116
IWF 2115
Schn@@ 2115
Stad@@ 2115
delete 2115
ever@@ 2115
Export 2114
anzuwenden 2114
hü@@ 2114
Gewinn@@ 2113
akt 2113
attend 2113
erfolgreich@@ 2113
floors 2113
sights 2113
Ori@@ 2112
cour@@ 2112
ements 2112
foundations 2112
getreten 2112
respects 2112
stem 2112
tragedy 2112
Dam@@ 2111
objec@@ 2111
Ga@@ 2110
Motor 2110
Nachdruck 2110
jud@@ 2110
projekt 2110
servers 2110
stick 2110
zentr@@ 2110
Gau@@ 2109
ardi@@ 2109
hydro@@ 2109
versteht 2109
zusehen 2109
üs@@ 2109
Ausbau 2108
Niederlande 2108
Strecke 2108
beibehalten 2108
definieren 2108
inner@@ 2108
Anwender 2107
Fahrt 2107
alu@@ 2107
beantwortet 2107
chter@@ 2107
erwiesen 2107
grünen 2107
seu@@ 2107
unnecessary 2107
Benutz@@ 2106
eigener 2106
kan 2106
Stock 2105
beabsichtigt 2105
custom@@ 2105
ethical 2105
max 2105
pot@@ 2105
produkten 2105
Hardware 2104
Lebensmittelsicherheit 2104
kilometres 2104
Montenegro 2103
Wahrung 2103
bild@@ 2103
dlicher 2103
importantly 2103
meister 2103
mouth 2103
Sieg 2102
connec@@ 2102
hidden 2102
script 2102
tian 2102
zia 2102
Haiti 2101
Programmi@@ 2101
Schulden 2101
Source 2101
schemes 2101
Abfall@@ 2100
Koh@@ 2100
QU@@ 2100
beu@@ 2100
erteilen 2100
prof@@ 2100
tious 2100
Haushalts 2099
fewer 2099
Truppen 2098
considerations 2098
els@@ 2098
Häuser 2097
Spezial@@ 2097
klein 2097
oli 2097
würdigen 2097
Bedien@@ 2096
Sign@@ 2096
chtigen 2096
ehmer 2096
theore@@ 2096
Гј@@ 2096
Weiterentwicklung 2095
composition 2095
dollar 2095
eo 2095
spit@@ 2095
steam 2095
zah@@ 2095
Entwicklungshilfe 2094
SW@@ 2094
fik@@ 2094
gegebenenfalls 2094
ide 2094
sk 2094
suff@@ 2094
Gehminuten 2093
teachers 2093
83 2092
Allah 2092
Fischler 2092
Keine 2092
Max 2092
Kongres@@ 2091
instrumente 2091
magazine 2091
permit 2091
plastic 2091
sums 2091
bürokrati@@ 2090
sement 2090
knapp 2089
tracks 2089
Anmerkungen 2088
Versicherungs@@ 2088
chtigkeit 2088
moderni@@ 2088
noon 2088
Fir@@ 2087
shore 2087
toward 2087
withdraw 2087
essing 2086
foremost 2086
märkten 2086
Apart 2085
Pflanzen 2085
Wissenschaftler 2085
bou@@ 2085
shortly 2085
exact 2084
respektieren 2084
tant 2084
Il 2083
Zeitplan 2083
decre@@ 2083
province 2083
vertritt 2083
Kompetenzen 2082
Werden 2082
narrow 2082
ć 2082
Further 2081
IV@@ 2081
Katalog 2081
Woh@@ 2081
approaches 2081
clarity 2081
correc@@ 2081
journalists 2081
signing 2081
activ@@ 2080
schwedischen 2080
Mädchen 2079
herstellen 2079
romantic 2079
zahlungen 2079
350 2078
fantas@@ 2078
lädt 2078
permission 2078
treatments 2078
unch 2078
varied 2078
ünd@@ 2078
Kommentare 2077
Zuge 2077
design@@ 2077
füh@@ 2077
olive 2077
wächst 2077
überzeu@@ 2077
Lateinamerika 2076
befürworten 2076
shed 2076
angenommenen 2075
camp 2075
strukturen 2075
College 2074
Wichtigkeit 2074
bett 2074
jointly 2074
manchen 2074
pft 2074
solar 2074
Betreuung 2073
Greens 2073
Käufer 2073
Phili@@ 2073
TS 2073
detailli@@ 2073
errichtet 2073
gesam@@ 2073
höchst 2073
proz@@ 2073
Hän@@ 2072
Typ 2072
fes 2072
lica 2072
sied@@ 2072
var 2072
Zürich 2070
communicate 2070
veröffentlichen 2070
Basel 2069
bedroht 2069
quo@@ 2069
baus 2068
economically 2068
endor@@ 2068
medicine 2068
vent@@ 2068
occupation 2067
sogenannten 2067
zahlt 2067
agne 2066
enormen 2066
exemp@@ 2066
fortsetzen 2066
oppose 2066
schule 2066
Bekann@@ 2065
TE 2065
anerkennen 2065
ires 2065
kle@@ 2065
vollem 2065
Côte 2064
Explorer 2064
GU@@ 2064
Holz 2064
Verheugen 2064
Zeu@@ 2064
schluss 2064
shel@@ 2064
wireless 2064
Area 2063
Berge 2063
Kle@@ 2063
Rin@@ 2063
financed 2063
neun 2063
scheduled 2063
thorough 2063
Saf@@ 2062
concentration 2062
gin@@ 2062
hinzu 2062
ranging 2062
reputation 2062
schriftliche 2062
MP3 2061
angenehmen 2061
checked 2061
endet 2061
inspired 2061
doubts 2060
kür@@ 2060
labor 2060
opens 2060
stattgefunden 2060
lierte 2059
wes@@ 2059
Meinungs@@ 2058
Suites 2058
generell 2058
geschlossenen 2058
gewidmet 2058
pensions 2058
plates 2058
weltweite 2058
Kennzeichnung 2057
completion 2057
fried@@ 2057
propri@@ 2057
Lou@@ 2056
Spitzen@@ 2056
Ansprüche 2055
FA@@ 2055
dio@@ 2055
meter 2055
teen 2055
volles 2055
Beru@@ 2054
abri@@ 2054
alisi@@ 2054
amazing 2054
auswirken 2054
bi 2054
bright 2054
erheben 2054
gesucht 2054
kräf@@ 2054
manual 2054
pur@@ 2054
Fremdenverkehr 2053
desto 2053
distur@@ 2053
verkehr@@ 2053
Kommun@@ 2052
fak@@ 2052
rain 2052
suche 2052
südlichen 2052
Frühstücksbuffet 2051
begun 2051
ept 2051
ial 2051
ichtet 2051
konsequent 2051
sitz@@ 2051
tolerance 2051
vi 2051
Chancengleichheit 2050
bedürf@@ 2050
dien 2050
instantly 2050
Dreh@@ 2049
Offenheit 2049
Roman@@ 2049
inser@@ 2049
picturesque 2049
string 2049
vorsieht 2049
Hab@@ 2048
grund 2048
ilit@@ 2048
klären 2048
komfortable 2048
kräften 2048
recall 2048
visual 2048
Access 2047
Bosnia 2047
erfahr@@ 2047
qualitativ 2047
ähn@@ 2047
60@@ 2046
HD 2046
Muslim 2046
Spitze 2046
amending 2046
contrac@@ 2046
erhoben 2046
llen 2046
observe 2046
wäl@@ 2046
Häfen 2045
Sonntag 2045
kennt 2045
mann@@ 2045
mäßige 2045
omp@@ 2045
regierung 2045
sand@@ 2045
EIB 2044
Euch 2044
Lat@@ 2044
Under@@ 2044
influ@@ 2044
specialists 2044
stärksten 2044
Aufhebung 2043
Glück@@ 2043
Go 2043
appointment 2042
bol@@ 2042
ids 2042
mag@@ 2042
operated 2042
Stamm@@ 2041
afraid 2041
aktuell 2041
compact 2041
Är@@ 2041
Problematik 2040
SC 2040
Top@@ 2040
minor 2040
nehmer 2040
schnit@@ 2040
spä@@ 2040
terrible 2040
CP 2039
bequ@@ 2039
chemische 2039
gebene 2039
keys 2039
ners 2039
overlooking 2039
seats 2039
tent@@ 2039
Krieges 2038
cas 2038
hä@@ 2038
interne 2038
relationships 2038
Fabri@@ 2037
Siemens 2037
Unterkünfte 2037
didn 2037
diff@@ 2037
gefährlich 2037
oriented 2037
solved 2037
teste 2037
tribute 2037
Children 2036
Richard 2036
Operation 2035
widmen 2035
wirtschaf@@ 2035
Georgien 2034
aches 2034
compete 2034
Flü@@ 2033
cent@@ 2033
funktion 2033
hence 2033
strasse 2033
verl@@ 2033
Ausgrenzung 2032
Chem@@ 2032
Cop@@ 2032
Oliven@@ 2032
dependence 2032
grosse 2032
25. 2031
Philosophie 2031
branche 2031
gan 2031
illa 2031
Direk@@ 2030
Ferr@@ 2030
Gas 2030
aments 2030
skiing 2030
tten@@ 2030
alise 2029
kanische 2029
mitt@@ 2029
regionen 2029
Galileo 2028
Verteidigungs@@ 2028
Verwal@@ 2028
ede 2028
entieren 2028
exposed 2028
hinzugefügt 2028
usw 2028
Bürgerbeauftragten 2027
Statistiken 2027
false 2027
chi 2026
student 2026
vely 2026
Subject 2025
drin@@ 2025
glichkeit 2025
miß@@ 2025
quellen 2025
raft 2025
schla@@ 2025
Oberfläche 2024
Uns 2024
Verordnungen 2024
Wikicars 2024
examined 2024
Bord 2023
Golden 2023
Strand@@ 2023
cool 2022
pil@@ 2022
real@@ 2022
add@@ 2021
ices 2021
repair 2021
schutzes 2021
solch 2021
werks 2021
wu@@ 2021
Read 2020
einsei@@ 2020
transitional 2020
urlaub 2020
Terms 2019
Valencia 2019
eur 2019
größter 2019
phones 2019
31. 2018
Betracht 2018
Migration 2018
erhö@@ 2018
underlying 2018
DS 2017
Fläche 2017
Nation 2017
Tampere 2017
complaints 2017
remarkable 2017
stores 2017
ро@@ 2017
Ausbildungs@@ 2016
Py@@ 2016
Society 2016
Ven@@ 2016
codes 2016
gia 2016
oom 2016
zugeben 2016
ý 2016
Erwachsene 2015
Messe@@ 2015
Protokolls 2015
Trek 2015
Zielsetzungen 2015
verwendeten 2015
Appartement 2014
alternatives 2014
campaigns 2014
conferences 2014
Louis 2013
Speisen 2013
endgültige 2013
Denken 2012
Schicksal 2012
behauptet 2012
declare 2012
enne 2012
environmentally 2012
free@@ 2012
kohär@@ 2012
maßen 2012
sozial@@ 2012
Eines 2011
Kaffee 2011
Nero 2011
Ref 2011
herzustellen 2011
ship@@ 2011
weilen 2011
Lernen 2010
boats 2010
erstens 2010
evident 2010
genauer 2010
kollek@@ 2010
organis@@ 2010
typischen 2010
uneingeschränkt 2010
Riviera 2009
grossen 2009
Himmel 2008
expand 2008
fro@@ 2008
herunterladen 2008
spanische 2008
CEO 2007
Genau 2007
Growth 2007
representing 2007
Ausrichtung 2006
affecting 2006
anz@@ 2006
Erarbeitung 2005
Herkunfts@@ 2005
Strände 2005
dom 2005
granting 2005
prefer@@ 2005
sely 2005
tiver 2005
Bol@@ 2004
GR@@ 2004
Objekte 2004
Verzeichnis 2004
distribut@@ 2004
girls 2004
innere 2004
stressed 2004
verabschieden 2004
evi@@ 2003
references 2003
textile 2003
unmittelbarer 2003
Academy 2002
Fluss 2002
finanzi@@ 2002
losing 2002
pilot 2002
Dokumentation 2001
GE 2001
Small 2001
Verfahrens 2001
berechnet 2001
eable 2001
effizienter 2001
formuliert 2001
Sekunden 2000
graphics 2000
ologischer 2000
panoramic 2000
partial 2000
trig@@ 2000
Marken@@ 1999
Tag@@ 1999
hilfreich 1999
honest 1999
iser 1999
rats 1999
religi@@ 1999
84 1998
Diesen 1998
Maschinen@@ 1998
beding@@ 1998
prize 1998
Line 1997
paket 1997
SI 1996
anzuzeigen 1996
debated 1996
Drogen 1995
vorliegt 1995
wissen@@ 1995
BA 1994
Liberalen 1994
Make 1994
Minderheit 1994
Schwe@@ 1994
beweisen 1994
Bestellungen 1993
Kürze 1993
funk@@ 1993
selec@@ 1993
A. 1992
Beschränkungen 1992
Fortsetzung 1992
Jesus 1992
Orten 1992
Vorgehensweise 1992
erarbeitet 1992
natur@@ 1992
travel@@ 1992
Dresden 1991
Fig@@ 1991
dation 1991
entwick@@ 1991
fairen 1991
initially 1991
Bevor 1990
Dur@@ 1990
Entfernung 1990
akes 1990
foto@@ 1990
garanti@@ 1990
snow 1990
vertraut 1990
electoral 1989
lement 1989
Können 1988
falsche 1988
gemeinsamer 1988
gere@@ 1988
zustande 1988
6,@@ 1987
CA 1987
verlag@@ 1987
ě@@ 1987
eht 1986
entiert 1986
veran@@ 1986
wonder@@ 1986
Inst@@ 1985
Konferenz@@ 1985
Stock@@ 1985
Verfahrens@@ 1985
absurd 1985
fehlen 1985
geehrte 1985
hohes 1985
loading 1985
Distri@@ 1984
agr@@ 1984
blind 1984
deadline 1984
describe 1984
gestiegen 1984
unterbrochen 1984
whatsoever 1984
ßer 1984
CE@@ 1983
Viel@@ 1983
selb@@ 1983
ér@@ 1983
Leit@@ 1982
alitäten 1982
kap@@ 1982
perpet@@ 1982
plying 1982
IK@@ 1981
Prozess@@ 1981
integr@@ 1981
zugestimmt 1981
Einer 1980
Fang@@ 1980
casino 1980
tätigen 1980
Sowohl 1979
acqu@@ 1979
bedauerlich 1979
bewegt 1979
eland 1979
erend 1979
ski@@ 1979
tatsächlichen 1979
Ursache 1978
broken 1978
cast@@ 1978
ey@@ 1978
tus 1978
180 1977
Bereits 1977
Lis@@ 1977
Swi@@ 1977
accordingly 1977
arabischen 1977
gebenen 1977
sake 1977
tisches 1977
cla@@ 1976
domin@@ 1976
kamp@@ 1976
maybe 1976
pap@@ 1976
tu 1976
Bestätigung 1975
CF@@ 1975
Europa@@ 1975
verstän@@ 1975
Erfolge 1974
integrity 1974
speeches 1974
Drittel 1973
Florence 1973
Kön@@ 1973
V. 1973
arrest 1973
geliefert 1973
riding 1973
Edinburgh 1972
Portal 1972
Professional 1972
Schla@@ 1972
ling@@ 1972
Taten 1971
Volkswirtschaften 1971
gesetz 1971
gänge 1971
benutz@@ 1970
erforderliche 1970
judge 1970
mäßigen 1970
regionaler 1970
ultimate 1970
Aussagen 1969
Inflation 1969
SY@@ 1969
Travel 1969
advis@@ 1969
alli@@ 1969
broader 1969
communic@@ 1969
gewöhnlich 1969
tiker 1969
Einzelheiten 1968
Performance 1968
Wettbewerbs 1968
alisierte 1968
amenities 1968
bed@@ 1968
constructed 1968
incorpor@@ 1968
ø@@ 1968
Three 1967
charakter@@ 1967
dramatic 1967
drückt 1967
erheblichen 1967
gehe 1967
listening 1967
strebt 1967
ION@@ 1966
Jac@@ 1966
Tech 1966
entation 1966
umfassen 1966
én@@ 1966
Gebühren 1965
Governance 1965
ened 1965
mile 1965
nobody 1965
thanking 1965
Fla@@ 1964
Formulierung 1964
Lit@@ 1964
Verkehr@@ 1964
calm 1964
ehm@@ 1964
zweiter 1964
erwar@@ 1963
mische 1963
suggests 1963
tagen 1963
yle 1963
Fur@@ 1962
deserve 1962
ownership 1962
superior 1962
öffentlicher 1962
Audi@@ 1961
Az@@ 1961
EW@@ 1961
Rechnungshof 1961
exec@@ 1961
intensiv 1961
kes@@ 1961
zerti@@ 1961
Bildern 1960
Mini@@ 1960
cheese 1960
ignore 1960
program@@ 1960
spür@@ 1960
betrieb@@ 1959
künst@@ 1959
mentation 1959
navigation 1959
Engineering 1958
Zivil@@ 1958
eira 1958
erwähnten 1958
predi@@ 1958
stechnik 1958
wander@@ 1958
wur@@ 1958
Boot 1957
afford 1957
custom 1957
verwiesen 1957
Firefox 1956
Jer@@ 1956
Rural 1956
Vie@@ 1956
chinesische 1956
collabor@@ 1956
examination 1956
A.@@ 1955
dition 1955
feet 1955
füllt 1955
hochwertige 1955
sophisticated 1955
Jung@@ 1954
Pension 1954
Raums 1954
Schei@@ 1954
ehemalige 1954
engines 1954
height 1954
vos 1954
zugs@@ 1954
Besitz 1953
Soldaten 1953
Universitäten 1953
convenience 1953
destroy 1953
viable 1953
Left 1952
arts 1952
direk@@ 1952
recording 1952
suspended 1952
Bücher 1951
Fischereipolitik 1951
See@@ 1951
rom@@ 1951
110 1950
dacht 1950
derart 1950
existieren 1950
tigten 1950
äumen 1950
Airlines 1949
SQL 1949
allo 1949
anzupassen 1949
ao 1949
davor 1949
forgotten 1949
meal 1949
planen 1949
spezif@@ 1949
tail@@ 1949
Ablauf 1948
Andalu@@ 1948
Eng@@ 1948
Span@@ 1948
deep@@ 1948
informal 1948
schläge 1948
thi@@ 1948
1.5 1947
Islam@@ 1947
¼ 1947
divi@@ 1946
gence 1946
ration@@ 1946
speciali@@ 1946
Connec@@ 1945
Fleisch 1945
Urlau@@ 1945
native 1945
rot@@ 1945
seln 1945
taxpayers 1945
ziel 1945
übermitteln 1945
Partnership 1944
Rechnungs@@ 1944
ST 1944
answered 1944
eindeutige 1944
mensch@@ 1944
new@@ 1944
pol 1944
і@@ 1944
19th 1943
Original 1943
Pflanzen@@ 1943
tness 1943
Bürokratie 1942
Landwirtschafts@@ 1942
ehe 1942
enjoys 1942
loaded 1942
2015 1941
Ausnahmen 1941
Department 1941
Menschheit 1941
Presidents 1941
tivity 1941
Felder 1940
IX 1940
Ran@@ 1940
Using 1940
acking 1940
dend 1940
deut@@ 1940
fing 1940
ht 1940
häl@@ 1940
tariat 1940
evol@@ 1939
onal 1939
sprechend 1939
CDs 1938
Ev@@ 1938
Module 1938
befürwortet 1938
gegenseitigen 1938
sound@@ 1938
übt 1938
Black@@ 1937
comparable 1937
concert 1937
sien 1937
Palette 1936
Samstag 1936
Verabschiedung 1936
enburg 1936
organiz@@ 1936
Abbau 1935
dieren 1935
dieselben 1935
kir@@ 1935
leistet 1935
outs 1935
combines 1934
enhan@@ 1934
margin@@ 1934
setzte 1934
transfers 1934
Drei@@ 1933
Export@@ 1933
bruch 1933
instru@@ 1933
mir@@ 1933
DER 1932
Gali@@ 1932
Representative 1932
Saison 1932
strike 1932
Alternativen 1931
Hände 1931
ME 1931
abgesehen 1931
berich@@ 1931
gin 1931
ingredients 1931
negotiated 1931
revised 1931
sent@@ 1931
spezialisiert 1931
в 1931
delays 1930
dene 1930
ghter 1930
milit@@ 1930
vacc@@ 1930
Speicher@@ 1929
Terroristen 1929
devoted 1929
leh@@ 1929
Ereignis 1928
basically 1928
tat 1928
use@@ 1928
atur@@ 1927
certainty 1927
diver@@ 1927
erweisen 1927
upgra@@ 1927
Ausbeutung 1926
Bla@@ 1926
erarbeiten 1926
gon 1926
sm 1926
wendung 1926
Menschenrechtsverletzungen 1925
nutzt 1925
Administr@@ 1924
EE@@ 1924
gastronom@@ 1924
schä@@ 1924
Afri@@ 1923
Ay@@ 1923
Franc@@ 1923
agu@@ 1923
dan 1923
durchzusetzen 1923
schalten 1923
summ@@ 1923
ungst@@ 1923
11@@ 1922
Funktionieren 1922
symboli@@ 1922
Bosnien 1921
OECD 1921
Sens@@ 1921
alter@@ 1921
arily 1921
expenses 1921
klassi@@ 1921
subsequently 1921
tender 1921
vez 1921
Filter 1920
Nehmen 1920
capabilities 1920
logic 1920
stärk@@ 1920
überrascht 1920
Account 1919
Betrieb@@ 1919
Vier@@ 1919
clicking 1919
gerechte 1919
swit@@ 1919
underground 1919
verbreitet 1919
Begründung 1918
deutliche 1918
stunning 1918
tioning 1918
upgrade 1918
collapse 1917
ratified 1917
Bewusstsein 1916
Wind 1916
loans 1916
sessions 1916
ENT 1915
Ersatz@@ 1915
Kuba 1915
bathrooms 1915
besonderes 1915
prospect 1915
vent 1915
verbreit@@ 1915
zel@@ 1915
ко@@ 1915
2nd 1914
Klimawandels 1914
Schutzes 1914
Vic@@ 1914
autumn 1914
bungen 1914
dateien 1914
greenhouse 1914
jurisdiction 1914
statisti@@ 1914
Blu@@ 1913
refuse 1913
Spezialitäten 1912
begegnen 1912
fut@@ 1912
gkeits@@ 1912
hervorragend 1912
igungen 1912
mel 1912
nä@@ 1912
professionelle 1912
sprüche 1912
Abgeordneter 1911
Anträge 1911
Appartements 1911
Auth@@ 1911
Gegner 1911
Räume 1911
einstimmig 1911
genau@@ 1911
interven@@ 1911
maximal 1911
moments 1911
pet 1911
populations 1911
Bureau 1910
Kein 1910
ds@@ 1910
xis 1910
Gemeinden 1909
Marco 1909
Monte 1909
NRO 1909
VIP 1909
ali 1909
beispiel@@ 1909
gerechtfertigt 1909
sauber@@ 1909
tta 1909
zio 1909
Pacific 1908
dring@@ 1908
neo@@ 1908
nich@@ 1908
soul 1908
wick@@ 1908
wirft 1908
ähnlichen 1908
Dynamik 1907
GPS 1907
ateg@@ 1907
beer 1907
bewertet 1907
drängen 1907
gewicht 1907
tut@@ 1907
Frequ@@ 1906
Menschenrechten 1906
Stur@@ 1906
bug 1906
phy@@ 1906
preferred 1906
Aktien@@ 1905
Altern@@ 1905
URL 1905
alistische 1905
behand@@ 1905
translated 1905
130 1904
Reinigung 1904
derselben 1904
gels 1904
och 1904
offiziell 1904
spüren 1904
umso 1904
weichen 1904
Ruf 1903
Werkzeug 1903
principal 1903
smooth 1903
Flughaf@@ 1902
maß@@ 1902
tung@@ 1902
Esp@@ 1901
assurance 1901
daten@@ 1901
eben@@ 1901
hiking 1901
hole 1901
trags@@ 1901
Event 1900
Kau@@ 1900
mixed 1900
Wall 1899
beef 1899
erw@@ 1899
expressly 1899
fuhren 1899
kungen 1899
siv 1899
tered 1899
Nachmittag 1898
Spielen 1898
förderung 1898
religiösen 1898
scho@@ 1898
sever@@ 1898
änder 1898
Umstände 1897
Versprechen 1897
ails 1897
angekündigt 1897
appar@@ 1897
fangen 1897
mid@@ 1897
ovi@@ 1897
tia 1897
undertake 1897
79 1896
Mass@@ 1896
Santer 1896
coastal 1896
fabri@@ 1896
mechanismen 1896
sibility 1896
stories 1896
Kie@@ 1895
apparent 1895
credible 1895
ehrlich 1895
klin@@ 1895
reibungen 1895
Billi@@ 1894
Händen 1894
admit 1894
biom@@ 1894
coordinate 1894
endgültigen 1894
Level 1893
beln 1893
cts 1893
dasselbe 1893
forming 1893
publish 1893
territories 1893
ax@@ 1892
berger 1892
brauch 1892
hundert 1892
uncertainty 1892
Moscow 1891
Otherwise 1891
Spei@@ 1891
freund@@ 1891
layout 1891
prin@@ 1891
ras 1891
specialized 1891
Finnish 1890
Stell@@ 1890
position@@ 1890
rufe 1890
s.com 1890
zero 1890
Bauern 1889
Brok 1889
Defence 1889
GA 1889
GUE 1889
baby 1889
erkennt 1889
justify 1889
pati@@ 1889
peri@@ 1889
sovereign 1889
taus@@ 1889
.net 1888
Def@@ 1888
Inc 1888
Patri@@ 1888
städ@@ 1888
üblichen 1888
dunk@@ 1887
eo@@ 1887
falling 1887
healthcare 1887
verursachen 1887
Cock@@ 1886
Hauptbahnhof 1886
bought 1886
euer 1886
magn@@ 1886
posts 1886
Mittwoch 1885
Renn@@ 1885
Rock 1885
Transfer 1885
Venedig 1885
anpassen 1885
dargelegt 1885
olle@@ 1885
teilungen 1885
ausländischen 1884
civilian 1884
engen 1884
enting 1884
preparations 1884
Marokko 1883
Palästinen@@ 1883
Steigerung 1883
Sum@@ 1883
Zunahme 1883
kas 1883
Wikitravel 1882
civili@@ 1882
gül@@ 1882
kung 1882
но@@ 1882
Handlungen 1881
Kopf@@ 1881
Sem@@ 1881
lierung 1881
sagten 1881
Together 1880
institution@@ 1880
könne 1880
obligator@@ 1880
violent 1880
FOR@@ 1879
Ministerpräsident 1879
UR 1879
Zerstörung 1879
Auflösung 1878
Geo@@ 1878
Speich@@ 1878
citizenship 1878
classical 1878
erhol@@ 1878
funktionier@@ 1878
ized 1878
netz 1878
orientation 1878
richtungen 1878
Meinungen 1877
abgeben 1877
atte 1877
inn 1877
iss@@ 1877
managers 1877
tract 1877
authors 1876
garage 1876
gemessen 1876
grenze 1876
kriterien 1876
nötigen 1876
Meer@@ 1875
Zwischen 1875
gert 1875
größe 1875
jährlichen 1875
low@@ 1875
я@@ 1875
Sav@@ 1874
inneren 1874
intervene 1874
modify 1874
promoted 1874
standes 1874
wirksam@@ 1874
Erwägung 1873
Monti 1873
Rü@@ 1873
ital 1873
mechanismus 1873
oldest 1873
umgehend 1873
Bezeichnung 1872
Lohn@@ 1872
Nat@@ 1872
Visa 1872
begünsti@@ 1872
ington 1872
refused 1872
schied@@ 1872
stischen 1872
20th 1871
CN@@ 1871
Govern@@ 1871
Herkunft 1871
Hussein 1871
Oli@@ 1871
Privatsphäre 1871
argue 1871
atta@@ 1871
believed 1871
dieselbe 1871
unanimously 1871
Effekt 1870
Richter 1870
Verfolgung 1870
ample 1870
array 1870
calendar 1870
fav@@ 1870
stätten 1870
geeigneten 1869
ore@@ 1869
rank 1869
var@@ 1869
änge 1869
Schuld 1868
erlassen 1868
gy@@ 1868
hafter 1868
unterschiedlicher 1868
Jan 1867
Kun@@ 1867
ral 1867
red@@ 1867
worrying 1867
Bestell@@ 1866
Palma 1866
Referendum 1866
Wild@@ 1866
betrieb 1866
earn 1866
explicitly 1866
lor@@ 1866
öse 1866
Schlaf@@ 1865
einsch@@ 1865
notified 1865
ressourcen 1865
sad 1865
Wiederherstellung 1864
arium 1864
betre@@ 1864
sichert 1864
terin 1864
östlichen 1864
ood 1863
splendid 1863
trock@@ 1863
zurzeit 1863
Burg 1862
Finanzen 1862
Russlands 1862
asset 1862
ctor 1862
erstes 1862
langem 1862
Betrach@@ 1861
Gruppen@@ 1861
beach@@ 1861
geführte 1861
Karl 1860
Wand@@ 1860
ablehnen 1860
beneficial 1860
evalu@@ 1860
fis@@ 1860
gast@@ 1860
hell 1860
normen 1860
rad@@ 1860
streben 1860
vertra@@ 1860
vertrauen 1860
Youth 1859
Zweiten 1859
berühmte 1859
dien@@ 1859
fan 1859
gehabt 1859
negotiate 1859
reads 1859
theatre 1859
bru@@ 1858
datei 1858
horizontal 1858
immer@@ 1858
renewed 1858
studied 1858
Schüler 1857
horse 1857
musi@@ 1857
rek@@ 1857
sequ@@ 1857
tschaft 1857
Super 1856
applicant 1856
mon 1856
welle 1856
Ok@@ 1855
Prof. 1855
Seele 1855
Summe 1855
begründet 1855
enor@@ 1855
fahrzeuge 1855
flexibel 1855
technischer 1855
zugelassen 1855
Fahrer 1854
Leben@@ 1854
Lehrer 1854
jk 1854
preced@@ 1854
secondary 1854
Gesicht 1853
Port@@ 1853
ancy 1853
tausend 1853
Cel@@ 1852
Docum@@ 1852
Erst@@ 1852
azz@@ 1852
competences 1852
lebenden 1852
prak@@ 1852
technisch 1852
Weiß@@ 1851
netz@@ 1851
synchron@@ 1851
Café 1850
Heimat 1850
Redu@@ 1850
clock 1850
erleichtert 1850
reibungs@@ 1850
univers@@ 1850
wai@@ 1850
80@@ 1849
Bak@@ 1849
Visi@@ 1849
aking 1849
herrschen 1849
innovativen 1849
ups 1849
vermittelt 1849
äußer@@ 1849
1988 1848
Beratungen 1848
C. 1848
Eth@@ 1848
Lü@@ 1848
Spaziergang 1848
finanzierung 1848
Roll@@ 1847
Sun 1847
Urlaubs@@ 1847
verzer@@ 1847
Eröffnung 1846
Nikon 1846
achievements 1846
agrees 1846
here@@ 1846
marktes 1846
С@@ 1846
dered 1845
escape 1845
fragt 1845
glie@@ 1845
short@@ 1845
Nordic 1844
günstige 1844
human@@ 1844
papers 1844
prevented 1844
ı@@ 1844
Lul@@ 1843
acks 1843
eingeräumt 1843
emo@@ 1843
großzügi@@ 1843
potenti@@ 1843
Feststellung 1842
assigned 1842
audience 1842
bureaucracy 1842
digitale 1842
ign 1842
klasse 1842
präzise 1842
renoviert 1842
seemed 1842
tch 1842
transaction 1842
verpflich@@ 1842
Beamten 1841
Friedens 1841
Med@@ 1841
observation 1841
schenken 1841
Binnen@@ 1840
Jes@@ 1840
Location 1840
Rechner 1840
angenehm 1840
dual 1840
vorrangi@@ 1840
angeb@@ 1839
freier 1839
gebe 1839
surveillance 1839
technique 1839
yo 1839
Jewish 1838
Spre@@ 1838
UNG 1838
dity 1838
hills 1838
ruling 1838
sleep 1838
wind@@ 1838
Beschluß 1837
Danach 1837
bay 1837
israelischen 1837
tas 1837
Übernahme 1837
Erlebnis 1836
Lithuania 1836
charm 1836
scen@@ 1836
BE@@ 1835
Ms 1835
Stri@@ 1835
ea 1835
graphie 1835
ille 1835
projec@@ 1835
sprä@@ 1835
¶ 1835
kün@@ 1834
researchers 1834
schlag@@ 1834
berichtet 1833
discount 1833
inspection 1833
necessity 1833
siv@@ 1833
.ch 1832
Fakten 1832
früh 1832
gige 1832
indicators 1832
stützt 1832
Lor@@ 1831
Sports 1831
Times 1831
Wie@@ 1831
abgegeben 1831
elektronische 1831
gelingen 1831
inakzeptabel 1831
thaus 1831
zeichnete 1831
Berei@@ 1830
Einfl@@ 1830
Erfin@@ 1830
KDE 1830
Logik 1830
Steuerzahler 1830
Szen@@ 1830
cated 1830
demonstrates 1830
eption 1830
imported 1830
Alters@@ 1829
Frauen@@ 1829
Inkrafttreten 1829
Lieferanten 1829
Sri 1829
deci@@ 1829
jed@@ 1829
Entwickler 1828
Wohnungen 1828
gebo@@ 1828
meals 1828
progressive 1828
reflection 1828
rum@@ 1828
Objekt 1827
Verteidigungspolitik 1827
width 1827
ausführ@@ 1826
blan@@ 1826
cancellation 1826
geachtet 1826
reichhal@@ 1826
CO 1825
geschnitten 1825
cam@@ 1824
humanity 1824
olle 1824
verzichten 1824
zir@@ 1824
Atlan@@ 1823
Demokrati@@ 1823
Hum@@ 1823
Hz 1823
adult 1823
faire 1823
komplexen 1823
ktions@@ 1823
postal 1823
Energiequellen 1822
Wit@@ 1822
einiges 1822
geren 1822
stau@@ 1822
supplementary 1822
thri@@ 1822
ungere@@ 1822
Sz@@ 1821
lassung 1821
spectrum 1821
Ner@@ 1820
aktualisiert 1820
geringen 1820
presidential 1820
quantity 1820
Pflichten 1819
Steuer 1819
Wünschen 1819
angle 1819
certification 1819
grafische 1819
zeigte 1819
Anreize 1818
demokratisch 1818
dez 1818
einzig 1818
eure 1818
gnisse 1818
roof 1818
terung 1818
yal 1818
Aktivi@@ 1817
Prag 1817
adventure 1817
entran@@ 1817
wise 1817
ärmsten 1817
Betrug 1816
arbeiteten 1816
plas@@ 1816
vermieden 1816
Arena 1815
Fes@@ 1815
Original@@ 1815
Projek@@ 1815
Unterstütz@@ 1815
developers 1815
gelernt 1815
medizinische 1815
simultaneously 1815
telecommunications 1815
Die@@ 1814
Einwanderer 1814
Hen@@ 1814
Million 1814
Wohnzimmer 1814
closing 1814
focusing 1814
marking 1814
stur@@ 1814
Ausschüsse 1813
Autor 1813
Safe 1813
certified 1813
eintreten 1813
fat@@ 1813
gehörige 1813
harm 1813
hielt 1813
neighbourhood 1813
quest 1813
verstärkte 1813
Festplatte 1812
Insgesamt 1812
Verfasser 1812
employers 1812
entsch@@ 1812
günstigen 1812
insofern 1812
rez 1812
stag 1812
änderungen 1812
Gam@@ 1811
Grundsätzen 1811
Ministry 1811
agen 1811
cious 1811
derungen 1811
einführen 1811
electrical 1811
inspiri@@ 1811
logo 1811
Leipzig 1810
Studi@@ 1810
bla@@ 1810
fam@@ 1810
removal 1810
shing 1810
ution 1810
däm@@ 1809
erstklassi@@ 1809
fifth 1809
lei 1809
7,@@ 1808
Rußland 1808
derjenigen 1808
eigentliche 1808
fän@@ 1808
gift 1808
bedauere 1807
distinction 1807
kritischen 1807
unzu@@ 1807
Ansch@@ 1806
Gewinn 1806
ausreichende 1806
bezeichnen 1806
blicken 1806
bü@@ 1806
eröffnen 1806
professionellen 1806
Darfur 1805
biodiversity 1805
counts 1805
erweise 1805
itation 1805
kehr 1805
paths 1805
pho@@ 1805
respektiert 1805
staat@@ 1805
Lager 1804
Zertifik@@ 1804
organisierten 1804
terrorists 1804
tro 1804
vary 1804
Leg@@ 1803
bigger 1803
cookies 1803
emphasi@@ 1803
verschaffen 1803
à@@ 1803
Betreiber 1802
Miet@@ 1802
Osteuropa 1802
beschließen 1802
bte 1802
glaubt 1802
Ski 1801
contra@@ 1801
istisch 1801
jek@@ 1801
mistakes 1801
vorgehen 1801
24. 1800
siven 1800
Edi@@ 1799
Moder@@ 1799
Tabelle 1799
Zusammensetzung 1799
arrangement 1799
elec@@ 1799
frequ@@ 1799
gam@@ 1799
gieren 1799
hört 1799
swi@@ 1799
Inn@@ 1798
Verletzungen 1798
asts 1798
aufgestellt 1798
bonds 1798
geniessen 1798
Klassi@@ 1797
Vermögens@@ 1797
freight 1797
gingen 1797
threatened 1797
Direkt@@ 1796
File 1796
Laden 1796
Lud@@ 1796
ech@@ 1796
mur@@ 1796
newsletter 1796
soldiers 1796
Kredi@@ 1795
ahnen 1795
bud@@ 1795
dial 1795
pec@@ 1795
Brücke 1794
Einsatz@@ 1794
bewegung 1794
bewus@@ 1794
cancelled 1794
habit@@ 1794
schätz@@ 1794
venture 1794
Besuchen 1793
Lek@@ 1793
Musi@@ 1793
Nokia 1793
allocation 1793
deaths 1793
loses 1793
überein@@ 1793
Israelis 1792
KG 1792
Press 1792
beschleunigen 1792
react 1792
Ach@@ 1791
Beurteilung 1791
Filme 1791
bot 1791
onic 1791
ständiger 1791
Derzeit 1790
LAN 1790
May@@ 1790
Syria 1790
UM@@ 1790
ank 1790
artige 1790
authorised 1790
komplexe 1790
prinzip 1790
stones 1790
Hör@@ 1789
privileged 1789
ursprüngliche 1789
Übersicht 1789
ALDE 1788
Dum@@ 1788
Eff@@ 1788
Grünbuch 1788
Samm@@ 1788
Verlängerung 1788
encryp@@ 1788
jüngste 1788
tonnes 1788
Quell@@ 1787
Wich@@ 1787
ecks 1787
lings 1787
läu@@ 1787
vic@@ 1787
wand 1787
yr@@ 1787
österreichischen 1787
History 1786
Kenntnisse 1786
certificate 1786
eth 1786
geschäft 1786
stopped 1786
Einnahmen 1785
Hof 1785
Km 1785
Wen@@ 1785
defining 1785
tone 1785
Block@@ 1784
methode 1784
suited 1784
Drittstaaten 1783
Green@@ 1783
Kolle@@ 1783
Zuverlässigkeit 1783
beruflichen 1783
erkunden 1783
luss 1783
vac@@ 1783
Anhörung 1782
Immer 1782
Ungleich@@ 1782
characteristic 1782
getrennt 1782
ght@@ 1782
insufficient 1782
thei@@ 1782
ull 1782
Abteilung 1781
Innenstadt 1781
Kommissionspräsident 1781
Ltd 1781
Real@@ 1781
Regionalpolitik 1781
Werkzeuge 1781
belongs 1781
ehren 1781
eurozone 1781
folglich 1781
geschlagen 1781
iles 1781
turns 1781
zugute 1781
Chief 1780
Südafrika 1780
prüf@@ 1780
rating 1780
tains 1780
Beschwerden 1779
enjoying 1779
Ausrüstung 1778
Regen@@ 1778
beizutragen 1778
beruhen 1778
motivi@@ 1778
Rit@@ 1777
betriebe 1777
interess@@ 1777
langfristige 1777
segment 1777
Stufe 1776
atri@@ 1776
ernsthafte 1776
evaluate 1776
qualifications 1776
steuer 1776
tags 1776
wachsende 1776
wooden 1776
LateRooms.com 1775
Maj@@ 1775
Olympic 1775
fehl@@ 1775
patents 1775
protest 1775
viewed 1775
Für@@ 1774
Section 1774
bereit@@ 1774
brut@@ 1773
erörtert 1773
rest@@ 1773
Could 1772
VI 1772
frü@@ 1772
schließe 1772
sicherer 1772
stechn@@ 1772
würdi@@ 1772
Glob@@ 1771
Rückgang 1771
cons 1771
dimensions 1771
erfol@@ 1771
judgment 1771
tension 1771
verteilung 1771
würdig 1771
Ausübung 1770
Energiever@@ 1770
Main@@ 1770
Well@@ 1770
ador 1770
isse 1770
stet 1770
tera 1770
Fisch 1769
Strom 1769
Val 1769
fails 1769
perio@@ 1769
zeichneten 1769
Lun@@ 1768
conservation 1768
finds 1768
lap@@ 1768
residential 1768
ruppe 1768
zweif@@ 1768
KO@@ 1767
Mode 1767
Net 1767
Verkaufs@@ 1767
mand@@ 1767
ordnungsgemäß 1767
chemicals 1766
optional 1766
whenever 1766
Außenminister 1765
KOM 1765
Tauch@@ 1765
sizes 1765
urg@@ 1765
Betrifft 1764
Clu@@ 1764
Ly@@ 1764
Rol@@ 1764
Schle@@ 1764
Seiten@@ 1764
Tak@@ 1764
emphasised 1764
möglichkeit 1764
nur@@ 1764
ray 1764
rev@@ 1764
treaties 1764
zip 1764
erneuerbaren 1763
isierung 1763
izing 1763
question@@ 1763
viewing 1763
vorüber@@ 1763
Erweiterungs@@ 1762
José 1762
Jugendliche 1762
buying 1762
frequency 1762
Work@@ 1761
ceiling 1761
eries 1761
erwerben 1761
kunden 1761
unions 1761
Big 1760
Großen 1760
Hafen@@ 1760
Heizung 1760
Illu@@ 1760
Imperi@@ 1760
Unterzeichnung 1760
focuses 1760
fuhr 1760
regimes 1760
Europar@@ 1759
INE 1759
Inhalten 1759
dienstleistungen 1759
interinstitutional 1759
stering 1759
thro@@ 1759
timely 1759
té 1759
м 1759
Erhalt 1758
catalogue 1758
elderly 1758
Taliban 1757
drafting 1757
DR@@ 1756
Strah@@ 1756
cit@@ 1756
facilit@@ 1756
feder@@ 1756
jeglicher 1756
medieval 1756
unterbreiten 1756
Mittelmeer@@ 1755
Schulden@@ 1755
Yugoslavia 1755
antwor@@ 1755
continuously 1755
hang 1755
integrierte 1755
Č@@ 1755
Madeira 1754
TP 1754
dnis 1754
polnischen 1754
procurement 1754
Vertretung 1753
conventions 1753
wünscht 1753
Belastung 1752
commerce 1752
ensu@@ 1752
iPod 1752
identification 1752
lit@@ 1752
transfer@@ 1752
Parti@@ 1751
besser@@ 1751
bia 1751
deficits 1751
habt 1751
jun@@ 1751
tations 1751
Heimat@@ 1750
Licht@@ 1750
berufen 1750
gor@@ 1750
Last@@ 1749
ago@@ 1749
expanded 1749
knew 1749
planung 1749
prob@@ 1749
promising 1749
Düsseldorf 1748
Hein@@ 1748
Kohlen@@ 1748
Netze 1748
Vers@@ 1748
Weine 1748
außen@@ 1748
lively 1748
Anwesenheit 1747
fed 1747
genießt 1747
kleinere 1747
kostenlose 1747
schwieriger 1747
vorschläge 1747
Beijing 1746
Einschätzung 1746
angebot 1746
atom@@ 1746
bten 1746
einnehmen 1746
fire@@ 1746
ool 1746
staatlicher 1746
transit 1746
Australien 1745
Intelli@@ 1745
teln 1745
zweck@@ 1745
Arbeitsgruppe 1744
Jacques 1744
Versuche 1744
fascinating 1744
industriellen 1744
key@@ 1744
lassungen 1744
reis@@ 1744
ware@@ 1744
Intervention 1743
Parliamentary 1743
entstand 1743
experiencing 1743
geringer 1743
mandatory 1743
trenn@@ 1743
verbindung 1743
Kä@@ 1742
Rahmenbedingungen 1742
Rassismus 1742
aton 1742
ausser@@ 1742
elegante 1742
sender 1742
GO 1741
bedro@@ 1741
gestartet 1741
schlechte 1741
adjustment 1740
affili@@ 1740
aufgeführt 1740
PAR@@ 1739
Publikum 1739
beziehungen 1739
entlichen 1739
erre@@ 1739
herum 1739
occupied 1739
vir@@ 1739
XML 1738
dahin 1738
Erzeugung 1737
Ingenie@@ 1737
Mehrwert 1737
Schwellen@@ 1737
bian 1737
fertigung 1737
integrieren 1737
konstruktive 1737
nachzu@@ 1737
survey 1737
undermine 1737
verhältnis 1737
22. 1736
Fak@@ 1736
Mobili@@ 1736
Weiterhin 1736
accuracy 1736
anna 1736
auseinander@@ 1736
erörtern 1736
gab@@ 1736
schaftsp@@ 1736
sex@@ 1736
Organis@@ 1735
PM 1735
Palacio 1735
substan@@ 1735
unterbreitet 1735
Panoram@@ 1734
Produktivität 1734
Sac@@ 1734
Wett@@ 1734
calcul@@ 1734
eien 1734
emerged 1734
erie 1734
inci@@ 1734
iron 1734
zeichnung 1734
Äußerungen 1734
Menü@@ 1733
Spannungen 1733
aggres@@ 1733
berührt 1733
contributing 1733
irische 1733
poker 1733
ror 1733
zentraler 1733
zwölf 1733
ña 1733
By@@ 1732
Subsidiarität 1732
ausländische 1732
geladen 1732
passieren 1732
verpflichten 1732
Audio@@ 1731
Termin 1731
Wichtig 1731
autom@@ 1731
xed 1731
Program 1730
Zuständigkeiten 1730
afri@@ 1730
consistently 1730
eradi@@ 1730
niedrigen 1730
proto@@ 1730
rö@@ 1730
bilateralen 1729
einstellen 1729
parameter 1729
periode 1729
recession 1729
wärts 1729
Sitzungen 1728
compla@@ 1728
lung@@ 1728
verzeichnen 1728
SDL 1727
Socialists 1727
advise 1727
alled 1727
ambition 1727
gebung 1727
geringe 1727
organisierte 1727
Iranian 1726
Third 1726
erlangen 1726
retten 1726
stützen 1726
wahre 1726
ühr@@ 1726
‚ 1726
Doppelzimmer 1725
Free@@ 1725
breach 1725
nachdenken 1725
pursued 1725
ück 1725
die@@ 1724
ee@@ 1724
exten@@ 1724
po 1724
wirksamen 1724
Meg@@ 1723
Phänomen 1723
blame 1723
eriert 1723
fell 1723
gebühren 1723
konfigu@@ 1723
ld@@ 1723
pattern 1723
defin@@ 1722
invo@@ 1722
signals 1722
t.@@ 1722
zunehmende 1722
Energiepolitik 1721
Gewi@@ 1721
Obviously 1721
annt 1721
ees 1721
farms 1721
lokaler 1721
duration 1720
imposing 1720
withdrawal 1720
Argentina 1719
Fans 1719
Klin@@ 1719
boasts 1719
trained 1719
trei@@ 1719
Cologne 1718
Gipfeltreffen 1718
Massage 1718
Wälder 1718
demokratischer 1718
gerechnet 1718
vermutlich 1718
Mini 1717
Several 1717
Wesen 1717
facto 1717
geistigen 1717
heutzutage 1717
schwan@@ 1717
vernünftig 1717
9001 1716
Katastrophen 1716
aussehen 1716
issen 1716
realize 1716
verwirklichen 1716
warmly 1716
Baum@@ 1715
Einschränkungen 1715
Gui@@ 1715
Kräften 1715
Prävention 1715
Schalt@@ 1715
angem@@ 1715
column 1715
eping 1715
essor 1715
tiken 1715
trouble 1715
ungeh@@ 1715
vereinbarten 1715
überra@@ 1715
überwacht 1715
Ander@@ 1714
Besteuerung 1714
dent@@ 1714
gewünschte 1714
größ@@ 1714
indoor 1714
Gewinne 1713
asen 1713
enni@@ 1713
kurse 1713
unstable 1713
vocational 1713
Desktop 1712
Schlag@@ 1712
Terr@@ 1712
gefährden 1712
installations 1712
smart 1712
zwischen@@ 1712
Antri@@ 1711
Inspek@@ 1711
Saal 1711
Verts 1711
authorized 1711
book@@ 1711
här@@ 1711
spieler 1711
stil 1711
systematic 1711
Bewältigung 1710
Sarkozy 1710
indicates 1710
motions 1710
rahmen 1710
stim@@ 1710
wherever 1710
29. 1709
Plätze 1709
SL 1709
alisten 1709
ausführlich 1709
consistency 1709
fünf@@ 1709
hur@@ 1709
Country 1708
Hit@@ 1708
abschließend 1708
berge 1708
split 1708
Georgi@@ 1707
Sab@@ 1707
Team@@ 1707
edited 1707
inter 1707
lock@@ 1707
pper 1707
Kapazität 1706
Southern 1706
UK@@ 1706
aud 1706
branch 1706
conversion 1706
creature 1706
innen@@ 1706
pressed 1706
sth@@ 1706
suggestion 1706
traum@@ 1706
zzo 1706
05@@ 1705
Bran@@ 1705
Sto@@ 1705
dauern 1705
ji@@ 1705
umfangreichen 1705
visits 1705
Sant 1704
Tickets 1704
bisschen 1704
missed 1704
omen 1704
perspectives 1704
vorhin 1704
za@@ 1704
Bergen 1703
Drei 1703
Zus@@ 1703
particip@@ 1703
tigh@@ 1703
But@@ 1702
Übereinkommens 1702
Gy@@ 1701
bewiesen 1701
chairs 1701
ckets 1701
pain 1701
technologische 1701
ökonomische 1701
23. 1700
Skri@@ 1700
portra@@ 1700
step@@ 1700
voters 1700
Gut 1699
bewirken 1699
einzugehen 1699
europa 1699
gebunden 1699
opt 1699
Tari@@ 1698
Versorgungs@@ 1698
compo@@ 1698
convert 1698
expressing 1698
leihen 1698
starkes 1698
Index 1697
astic 1697
discre@@ 1697
leidet 1697
meldung 1697
s- 1697
1986 1696
Krisen 1696
Köln 1696
Water 1696
bureaucratic 1696
declarations 1696
exist@@ 1696
icon 1696
Halle 1695
NGL 1695
Village 1695
russische 1695
sample 1695
wording 1695
währ@@ 1695
Bud@@ 1694
Jap@@ 1694
Lon@@ 1694
Ros@@ 1694
Slovenia 1694
beabsichti@@ 1694
medizinischen 1694
sonstige 1694
tary 1694
weitaus 1694
9,@@ 1693
Bevölkerungs@@ 1693
GP 1693
desktop 1693
einhalten 1693
stattdessen 1693
Anzeige 1692
Milosevic 1692
Until 1692
alisierungs@@ 1692
fortgesetzt 1692
gend@@ 1692
gewisser 1692
onia 1692
preserved 1692
schwi@@ 1692
virtu@@ 1692
EV@@ 1691
Liberal 1691
erinnere 1691
kurzer 1691
notably 1691
standardi@@ 1691
BER@@ 1690
beiträgt 1690
relief 1690
verschieden@@ 1690
bürger 1689
dog 1689
inclusive 1689
regulate 1689
treas@@ 1689
vernünftige 1689
virus 1689
Communist 1688
Datenschutz 1688
FC 1688
foot@@ 1688
verletz@@ 1688
völ@@ 1688
zielt 1688
Neues 1687
TA 1687
austausch 1687
kämp@@ 1687
sentence 1687
Erbe 1686
Kreu@@ 1686
Lebanon 1686
Nation@@ 1686
Om@@ 1686
gü@@ 1686
parado@@ 1686
power@@ 1686
rational 1686
ystem 1686
Library 1685
aufnahme 1685
entary 1685
fa 1685
grand 1685
happ@@ 1685
plate 1685
residents 1685
sauber 1685
späteren 1685
Chr@@ 1684
Wireless 1684
mün@@ 1684
mündlichen 1684
tangible 1684
140 1683
1985 1683
Jahr@@ 1683
Konjunktur@@ 1683
acquis 1683
exceed@@ 1683
lossen 1683
pru@@ 1683
threshold 1683
verständnis 1683
xel 1683
Schil@@ 1682
gebnis 1682
ses@@ 1682
Annehmlichkeiten 1681
Ideal 1681
Modul 1681
geplanten 1681
wol@@ 1681
Os@@ 1680
ava 1680
bezogen 1680
führungs@@ 1680
generous 1680
icht 1680
pair 1680
verkün@@ 1680
zips 1680
ßten 1680
Abstimmungen 1679
akzeptabel 1679
arranged 1679
comb@@ 1679
nete 1679
potentially 1679
schlech@@ 1679
streng 1679
utes 1679
Mischung 1678
officially 1678
placing 1678
ratifiziert 1678
unemployed 1678
urs@@ 1678
Arbeitsbedingungen 1677
Choose 1677
Zurich 1677
elf 1677
essence 1677
gewählte 1677
measurement 1677
mist@@ 1677
realistisch 1677
specify 1677
verschieben 1677
wski 1677
Contact 1676
Force 1676
Lich@@ 1676
Modus 1676
beinahe 1676
streng@@ 1676
tise 1676
Rub@@ 1675
attended 1675
designer 1675
inspec@@ 1675
Assist@@ 1674
Avi@@ 1674
Muster 1674
bege@@ 1674
deutlichen 1674
fulfilled 1674
interessanten 1674
migr@@ 1674
Justiz@@ 1673
atemberau@@ 1673
disputes 1673
etz 1673
gebraucht 1673
leichte 1673
Sex@@ 1672
Strategi@@ 1672
allen@@ 1672
erische 1672
fter 1672
isten 1672
publishing 1672
traums 1672
xe 1672
Alps 1671
Automobil@@ 1671
Palestine 1671
crops 1671
enlarged 1671
ethnischen 1671
gelegene 1671
menge 1671
sus@@ 1671
technologischen 1671
Macedonia 1670
Ord@@ 1670
formular 1670
liz@@ 1670
schedule 1670
talked 1670
wertvolle 1670
Konflikt@@ 1669
Kurz 1669
Rennen 1669
Wort@@ 1669
behandlung 1669
utt@@ 1669
Dal@@ 1668
Deutschlands 1668
League 1668
gische 1668
institute 1668
legislat@@ 1668
precious 1668
rela@@ 1668
Comple@@ 1667
Schreib@@ 1667
bekräftigt 1667
ket 1667
moves 1667
quelle 1667
unknown 1667
vereint 1667
wig 1667
IR 1666
Inclu@@ 1666
Modern 1666
Premium 1666
blin@@ 1666
busy 1666
erei@@ 1666
geograph@@ 1666
leid 1666
revealed 1666
Ech@@ 1665
Edel@@ 1665
Jon@@ 1665
Kämp@@ 1665
Vertre@@ 1665
apparently 1665
band@@ 1665
destinations 1665
emerge 1665
erstreckt 1665
patri@@ 1665
regrettable 1665
Arbeitgeber 1664
Fahrzeug 1664
Spor@@ 1664
deliber@@ 1664
rix 1664
wars 1664
wife 1664
Profil 1663
ados 1663
d.@@ 1663
effizienten 1663
xy 1663
Corporation 1662
Prize 1662
abstra@@ 1662
eigentlichen 1662
gesichert 1662
purchased 1662
500@@ 1661
Change 1661
Kün@@ 1661
enes 1661
relevanten 1661
tips 1661
hem@@ 1660
jemals 1660
verarbeitet 1660
Beschäftigten 1659
DR 1659
Series 1659
Temp@@ 1659
chers 1659
feste 1659
scar@@ 1659
signi@@ 1659
Themen@@ 1658
Unternehmer 1658
Vill@@ 1658
cting 1658
erwähnte 1658
geschafft 1658
liegende 1658
newspaper 1658
prakti@@ 1658
punkten 1658
throw 1658
verliehen 1658
wäsche 1658
ösen 1658
ж@@ 1658
Stau@@ 1657
convince 1657
erweiterten 1657
felder 1657
maj@@ 1657
manufactured 1657
taxi 1657
tivi@@ 1657
Cin@@ 1656
Konta@@ 1656
Zimbabwe 1656
gestellte 1656
rent@@ 1656
typisch 1656
Konzentration 1655
initiated 1655
kombiniert 1655
locate 1655
nonetheless 1655
rever@@ 1655
sitzung 1655
wies 1655
woo@@ 1655
Speci@@ 1654
beurteilen 1654
excursions 1654
fresh@@ 1654
olen 1654
pas 1654
teilzunehmen 1654
Micro@@ 1653
carte 1653
ideally 1653
ök@@ 1653
1987 1652
Arti@@ 1652
IA@@ 1652
Komplettpreise 1652
Mobil@@ 1652
anten@@ 1652
flicht 1652
handels 1652
posted 1652
wake 1652
CH 1651
Language 1651
Türen 1651
grundlegender 1651
lehnt 1651
Angabe 1650
Beglei@@ 1650
Iraqi 1650
M. 1650
Mann@@ 1650
arity 1650
basieren 1650
baut 1650
hten 1650
ior 1650
terien 1650
winner 1650
Ergänzung 1649
Funktion@@ 1649
Still@@ 1649
Wille 1649
achtung 1649
dak@@ 1649
demographic 1649
finances 1649
handels@@ 1649
kampf 1649
mechanical 1649
Editor 1648
Hunder@@ 1648
Leuten 1648
Maxim@@ 1648
Milan 1648
Missbrauch 1648
Mittelmeerraum 1648
composed 1648
eingeladen 1648
motorway 1648
nic@@ 1648
pak@@ 1648
undertakings 1648
älter 1648
Budgetary 1647
becken 1647
chose 1647
coal 1647
lass 1647
reichung 1647
öffnet 1647
Rezession 1646
Rubrik 1646
Sä@@ 1646
Unsicherheit 1646
abilität 1646
erb@@ 1646
günstig 1646
transatlantic 1646
Designer 1645
Fast 1645
Lux@@ 1645
argum@@ 1645
eve 1645
feedback 1645
thir@@ 1645
Luxus 1644
Pum@@ 1644
Schö@@ 1644
alls 1644
cache 1644
gemütliche 1644
scri@@ 1644
zentrali@@ 1644
BM@@ 1643
Fli@@ 1643
Stan@@ 1643
agentur 1643
aled 1643
broad@@ 1643
zo 1643
übermittelt 1643
Ford 1642
Mengen 1642
amend 1642
confident 1642
funktionen 1642
holder 1642
insul@@ 1642
nicht@@ 1642
zones 1642
Palästinenser 1641
Part 1641
investiert 1641
jour@@ 1641
koordini@@ 1641
som@@ 1641
Apart@@ 1640
Hä@@ 1640
Komit@@ 1640
Produzenten 1640
differenti@@ 1640
einst 1640
occurs 1640
Program@@ 1639
Robo@@ 1639
deutet 1639
diving 1639
empfängt 1639
organize 1639
pic@@ 1639
ruft 1639
shortcomings 1639
stant 1639
terer 1639
Formul@@ 1638
Universi@@ 1638
erläutern 1638
igten 1638
ika 1638
DI 1637
Haushaltsplans 1637
Millennium 1637
Spektrum 1637
condemned 1637
lity 1637
läne 1637
pays 1637
realisiert 1637
zunehmenden 1637
ür 1637
τ@@ 1637
Bauern@@ 1636
Internetzugang 1636
Tö@@ 1636
eingeschränkt 1636
fahrts@@ 1636
sheit 1636
wen 1636
Beste 1635
Theorie 1635
Venezuela 1635
accessories 1635
editor 1635
kei@@ 1635
ligkeit 1635
neighb@@ 1635
unden@@ 1635
Betroffenen 1634
Fluggesellschaften 1634
Händler 1634
Kinnock 1634
Ministerrat 1634
controversial 1634
ermutigen 1634
höchster 1634
reas@@ 1634
superb 1634
tika 1634
Citizens 1633
Dokument@@ 1633
Imp@@ 1633
Kn@@ 1633
Len@@ 1633
Schnell@@ 1633
sexuellen 1633
Abschluß 1632
Perf@@ 1632
Similarly 1632
deu@@ 1632
fare 1632
freu@@ 1632
rechtfertigen 1632
ruhige 1632
sul@@ 1632
Augen@@ 1631
neutral 1631
pay@@ 1631
plane 1631
Ausblick 1630
arrange 1630
auswärtige 1630
emission 1630
telefon@@ 1630
wohnt 1630
ESS 1629
Leiter 1629
Präsentation 1629
acknowled@@ 1629
demokrati@@ 1629
ierungs@@ 1629
inhal@@ 1629
nahme@@ 1629
nier 1629
wirkungs@@ 1629
1,5 1628
Bühne 1628
Glas 1628
Industrial 1628
Work 1628
abkommens 1628
bon 1628
crow@@ 1628
eco@@ 1628
gewinnt 1628
pack 1628
schreibt 1628
silence 1628
tened 1628
Democratic 1627
EURO@@ 1627
Fire@@ 1627
airline 1627
automotive 1627
eleganten 1627
gesonder@@ 1627
ignored 1627
metro 1627
reiterate 1627
tough 1627
Angriffe 1626
Koordin@@ 1626
Lasten 1626
Mar 1626
chil@@ 1626
consequently 1626
Haushalte 1625
Install@@ 1625
Versand@@ 1625
grü@@ 1625
sonstigen 1625
Bewohner 1624
Peace 1624
chat 1624
e.g 1624
enced 1624
gebäude 1624
terrasse 1624
äum@@ 1624
Compu@@ 1623
Experim@@ 1623
Gute 1623
Mazedonien 1623
Tuesday 1623
brands 1623
buil@@ 1623
catastrop@@ 1623
eting 1623
hotel@@ 1623
ility 1623
läufe 1623
strengen 1623
2.5 1622
Register 1622
Scotland 1622
Trend 1622
subscribe 1622
tle 1622
unterscheidet 1622
Albania 1621
Ausgangs@@ 1621
Das@@ 1621
En 1621
Kandidaten@@ 1621
Presse@@ 1621
Tragödie 1621
distor@@ 1621
plötzlich 1621
änderung 1621
Bek@@ 1620
Double 1620
Gestatten 1620
Verluste 1620
handled 1620
Öster@@ 1620
06@@ 1619
Sich@@ 1619
Unterdrückung 1619
affordable 1619
esa 1619
kommun@@ 1619
onien 1619
passion 1619
schnitt 1619
MS@@ 1618
gnis@@ 1618
zwanzig 1618
äußerster 1618
Clearly 1617
Daniel 1617
gesundheits@@ 1617
indic@@ 1617
nationals 1617
negle@@ 1617
outset 1617
propor@@ 1617
pursuant 1617
raises 1617
COD 1616
Clubs 1616
Dikt@@ 1616
Monte@@ 1616
Zul@@ 1616
arri@@ 1616
bevorstehenden 1616
borne 1616
kä@@ 1616
rücken 1616
Aktion@@ 1615
FOR 1615
aturen 1615
biological 1615
ohnehin 1615
quanti@@ 1615
qui 1615
Arts 1614
Erzeuger 1614
Fore@@ 1614
bird 1614
findings 1614
hou@@ 1614
kommerziellen 1614
schein@@ 1614
tali@@ 1614
verschmutzung 1614
Ce@@ 1613
Dest@@ 1613
Kreuz@@ 1613
bedenken 1613
bür@@ 1613
faszini@@ 1613
machten 1613
neg@@ 1613
Bab@@ 1612
graph 1612
nov@@ 1612
profi@@ 1612
Gaz@@ 1611
Which 1611
drück@@ 1611
enses 1611
kleineren 1611
schreck@@ 1611
substantially 1611
tauchen 1611
warming 1611
Saudi 1610
flying 1610
gn 1610
situ@@ 1610
Verträgen 1609
Weltkrieg 1609
behavior 1609
fün@@ 1609
nisses 1609
rung 1609
Merkmale 1608
Provence 1608
Solutions 1608
Verantwortlichen 1608
Wasch@@ 1608
confusion 1608
erzielten 1608
gesammelt 1608
lten 1608
unterstütz@@ 1608
verarbeitung 1608
Angebo@@ 1607
Declaration 1607
Medikamente 1607
Ped@@ 1607
Qui@@ 1607
Quo@@ 1607
ausgewählten 1607
bewahrt 1607
exchanges 1607
tlinie 1607
travellers 1607
unusual 1607
CS@@ 1606
Produktion@@ 1606
archive 1606
oli@@ 1606
rage 1606
riff 1606
umb@@ 1606
Konsultation 1605
Legislativ@@ 1605
Zucker@@ 1605
enttäuscht 1605
ira 1605
künfte 1605
tica 1605
tower 1605
urity 1605
BI@@ 1604
Geben 1604
Kapazitäten 1604
RSS 1604
Remo@@ 1604
angenehme 1604
hesitate 1604
mien 1604
painting 1604
purchasing 1604
21st 1603
Gebäuden 1603
intelligence 1603
lea@@ 1603
olls 1603
strenge 1603
viert 1603
Emissions@@ 1602
Reser@@ 1602
cio 1602
doppelt 1602
tec 1602
terungen 1602
Arbeitnehmer@@ 1601
Istanbul 1601
assured 1601
drafted 1601
gegenseitige 1601
publish@@ 1601
schluss@@ 1601
Baden 1600
Kh@@ 1600
arbeiter 1600
außerord@@ 1600
beeinflusst 1600
ungeachtet 1600
vorange@@ 1600
vorn 1600
zin@@ 1600
Olymp@@ 1599
amente 1599
logistics 1599
shuttle 1599
äder 1599
Bonn 1598
Cur@@ 1598
Holland 1598
Subventionen 1598
erheb@@ 1598
magic 1598
orien 1598
victim 1598
Asi@@ 1597
Taus@@ 1597
atis@@ 1597
diger 1597
gelegte 1597
innovations 1597
intermedi@@ 1597
ku 1597
realen 1597
tner 1597
unfortunate 1597
Überarbeitung 1597
alike 1596
exhibitions 1596
fate 1596
ffs 1596
lette 1596
schlim@@ 1596
test@@ 1596
wel 1596
üssi@@ 1596
Futter@@ 1595
Proz@@ 1595
acknowledged 1595
ander 1595
angewiesen 1595
1945 1594
Gipfels 1594
ailed 1594
fuels 1594
publications 1594
26. 1593
Linien 1593
Satelliten@@ 1593
Sied@@ 1593
Vorgaben 1593
esten 1593
instruc@@ 1593
maximale 1593
racism 1593
teilte 1593
tropical 1593
Berichterstattern 1592
aching 1592
fenster 1592
gewünscht 1592
kostenlosen 1592
kritisiert 1592
licht@@ 1592
meantime 1592
rac@@ 1592
spare 1592
sunny 1592
vigor@@ 1592
28. 1591
List 1591
Litauen 1591
Terror@@ 1591
Wetter 1591
camps 1591
weit@@ 1591
Geor@@ 1590
Order 1590
dominant 1590
eme 1590
preliminary 1590
zin 1590
1970 1589
crew 1589
derartigen 1589
gra 1589
guard 1589
restrict 1589
specially 1589
statistical 1589
staying 1589
zuverlässi@@ 1589
Cit@@ 1588
IE 1588
Traum 1588
cancel 1588
lesson 1588
rüstung 1588
spätestens 1588
äume 1588
Bonus 1587
Verhand@@ 1587
küste 1587
maps 1587
niedri@@ 1587
photographs 1587
simplification 1587
ure@@ 1587
Radi@@ 1586
centers 1586
ester@@ 1586
externe 1586
Darin 1585
Nav@@ 1585
aufgerufen 1585
contractual 1585
hop 1585
jü@@ 1585
Everyone 1584
Hung@@ 1584
Service@@ 1584
Volk@@ 1584
disappointed 1584
herunter@@ 1584
nachhaltig 1584
rechn@@ 1584
symp@@ 1584
wages 1584
wunderschöne 1584
по@@ 1584
License 1583
academic 1583
einzubeziehen 1583
hef@@ 1583
onds 1583
p.@@ 1583
pa 1583
prim@@ 1583
torture 1583
Heimatland 1582
Solche 1582
Tempo 1582
Vertrieb 1582
announce 1582
ausgedeh@@ 1582
consult 1582
respecting 1582
samkeit 1582
ń@@ 1582
Arzneimittel 1581
Game 1581
Samsung 1581
Schwarz@@ 1581
Wiederauf@@ 1581
hochwertigen 1581
rejection 1581
tigem 1581
Finanzmittel 1580
Ry@@ 1580
angebotenen 1580
differ 1580
machinery 1580
thoroughly 1580
underline 1580
unzureichend 1580
Eigenschaft 1579
Kohärenz 1579
mut 1579
tempor@@ 1579
BS 1578
Captain 1578
Ratspräsident 1578
Syrien 1578
caught 1578
fears 1578
gelei@@ 1578
intense 1578
replacement 1578
voneinander 1578
änder@@ 1578
Aufforderung 1577
CD@@ 1577
Friendly 1577
Netzwerk@@ 1577
esischen 1577
gemütlichen 1577
lossenen 1577
reinforce 1577
worry 1577
ð@@ 1577
ę@@ 1577
Bildschirm 1576
Entschließungen 1576
Ferienwohnungen 1576
Konzepte 1576
Kö@@ 1576
Provi@@ 1576
claimed 1576
empfiehlt 1576
ernste 1576
penalties 1576
schrittweise 1576
ан@@ 1576
Gerichtshofs 1575
Terminal 1575
bahn@@ 1575
behin@@ 1575
defending 1575
empf@@ 1575
etabli@@ 1575
gefährlichen 1575
monuments 1575
oration 1575
realisti@@ 1575
vorbehalten 1575
Set@@ 1574
angen@@ 1574
enza 1574
falschen 1574
frequent 1574
heavily 1574
integral 1574
kü@@ 1574
langes 1574
Flüchtlings@@ 1573
LCD 1573
Stahl@@ 1573
bab@@ 1573
solven@@ 1573
Gespräch 1572
Lehren 1572
Wat@@ 1572
ausger@@ 1572
mac@@ 1572
precision 1572
schaf@@ 1572
schieben 1572
schnei@@ 1572
sculp@@ 1572
t- 1572
unerlässlich 1572
verzö@@ 1572
ämp@@ 1572
Mitarbei@@ 1571
e- 1571
enswerte 1571
erh@@ 1571
simplify 1571
slowly 1571
zierung 1571
Anhang 1570
Kapit@@ 1570
Ratsvorsitzes 1570
UND 1570
incentive 1570
nutzbar 1570
Güter 1569
iel 1569
inischen 1569
keen 1569
loh@@ 1569
practically 1569
Foot@@ 1568
Konferenzen 1568
Regulierungs@@ 1568
erfasst 1568
ignoriert 1568
mature 1568
minist@@ 1568
ministeri@@ 1568
returns 1568
terminal 1568
wä@@ 1568
Gebir@@ 1567
Laut 1567
Wh@@ 1567
ahl 1567
forderte 1567
od 1567
ring@@ 1567
spektakul@@ 1567
tierenden 1567
Horiz@@ 1566
minimal 1566
trennen 1566
Einzelnen 1565
Gefängnis 1565
Regimes 1565
Run@@ 1565
Tourismus@@ 1565
Unterlagen 1565
womit 1565
ы@@ 1565
CL@@ 1564
edo 1564
einzuhalten 1564
senior 1564
tradition@@ 1564
End 1563
Geschäf@@ 1563
Gesprächen 1563
gerweise 1563
keeps 1563
Intel@@ 1562
advan@@ 1562
blichen 1562
genetic 1562
indirect 1562
releases 1562
riert 1562
teilten 1562
Empire 1561
Mom@@ 1561
angeblich 1561
ennung 1561
geld 1561
histor@@ 1561
partnerships 1561
promo@@ 1561
robust 1561
vals 1561
Beschl@@ 1560
Ged@@ 1560
Leb@@ 1560
dachte 1560
gerung 1560
tioned 1560
Smith 1559
endgültig 1559
sar@@ 1559
Ann@@ 1558
Lebensmitteln 1558
Nonetheless 1558
Rahmenprogramm 1558
[...]
